{
  "version": "1.0",
  "truncation": null,
  "padding": null,
  "added_tokens": [
    {
      "id": 0,
      "content": "<|endoftext|>",
      "single_word": false,
      "lstrip": false,
      "rstrip": false,
      "normalized": false,
      "special": true
    }
  ],
  "normalizer": null,
  "pre_tokenizer": {
    "type": "ByteLevel",
    "add_prefix_space": false,
    "trim_offsets": true,
    "use_regex": true
  },
  "post_processor": {
    "type": "ByteLevel",
    "add_prefix_space": true,
    "trim_offsets": false,
    "use_regex": true
  },
  "decoder": {
    "type": "ByteLevel",
    "add_prefix_space": true,
    "trim_offsets": true,
    "use_regex": true
  },
  "model": {
    "type": "BPE",
    "dropout": null,
    "unk_token": null,
    "continuing_subword_prefix": null,
    "end_of_word_suffix": null,
    "fuse_unk": false,
    "byte_fallback": false,
    "ignore_merges": false,
    "vocab": {
      "<|endoftext|>": 0,
      "!": 1,
      "\"": 2,
      "#": 3,
      "$": 4,
      "%": 5,
      "&": 6,
      "'": 7,
      "(": 8,
      ")": 9,
      "*": 10,
      "+": 11,
      ",": 12,
      "-": 13,
      ".": 14,
      "/": 15,
      "0": 16,
      "1": 17,
      "2": 18,
      "3": 19,
      "4": 20,
      "5": 21,
      "6": 22,
      "7": 23,
      "8": 24,
      "9": 25,
      ":": 26,
      ";": 27,
      "<": 28,
      "=": 29,
      ">": 30,
      "?": 31,
      "@": 32,
      "A": 33,
      "B": 34,
      "C": 35,
      "D": 36,
      "E": 37,
      "F": 38,
      "G": 39,
      "H": 40,
      "I": 41,
      "J": 42,
      "K": 43,
      "L": 44,
      "M": 45,
      "N": 46,
      "O": 47,
      "P": 48,
      "Q": 49,
      "R": 50,
      "S": 51,
      "T": 52,
      "U": 53,
      "V": 54,
      "W": 55,
      "X": 56,
      "Y": 57,
      "Z": 58,
      "[": 59,
      "\\": 60,
      "]": 61,
      "^": 62,
      "_": 63,
      "`": 64,
      "a": 65,
      "b": 66,
      "c": 67,
      "d": 68,
      "e": 69,
      "f": 70,
      "g": 71,
      "h": 72,
      "i": 73,
      "j": 74,
      "k": 75,
      "l": 76,
      "m": 77,
      "n": 78,
      "o": 79,
      "p": 80,
      "q": 81,
      "r": 82,
      "s": 83,
      "t": 84,
      "u": 85,
      "v": 86,
      "w": 87,
      "x": 88,
      "y": 89,
      "z": 90,
      "{": 91,
      "|": 92,
      "}": 93,
      "~": 94,
      "¡": 95,
      "¢": 96,
      "£": 97,
      "¤": 98,
      "¥": 99,
      "¦": 100,
      "§": 101,
      "¨": 102,
      "©": 103,
      "ª": 104,
      "«": 105,
      "¬": 106,
      "®": 107,
      "¯": 108,
      "°": 109,
      "±": 110,
      "²": 111,
      "³": 112,
      "´": 113,
      "µ": 114,
      "¶": 115,
      "·": 116,
      "¸": 117,
      "¹": 118,
      "º": 119,
      "»": 120,
      "¼": 121,
      "½": 122,
      "¾": 123,
      "¿": 124,
      "À": 125,
      "Á": 126,
      "Â": 127,
      "Ã": 128,
      "Ä": 129,
      "Å": 130,
      "Æ": 131,
      "Ç": 132,
      "È": 133,
      "É": 134,
      "Ê": 135,
      "Ë": 136,
      "Ì": 137,
      "Í": 138,
      "Î": 139,
      "Ï": 140,
      "Ð": 141,
      "Ñ": 142,
      "Ò": 143,
      "Ó": 144,
      "Ô": 145,
      "Õ": 146,
      "Ö": 147,
      "×": 148,
      "Ø": 149,
      "Ù": 150,
      "Ú": 151,
      "Û": 152,
      "Ü": 153,
      "Ý": 154,
      "Þ": 155,
      "ß": 156,
      "à": 157,
      "á": 158,
      "â": 159,
      "ã": 160,
      "ä": 161,
      "å": 162,
      "æ": 163,
      "ç": 164,
      "è": 165,
      "é": 166,
      "ê": 167,
      "ë": 168,
      "ì": 169,
      "í": 170,
      "î": 171,
      "ï": 172,
      "ð": 173,
      "ñ": 174,
      "ò": 175,
      "ó": 176,
      "ô": 177,
      "õ": 178,
      "ö": 179,
      "÷": 180,
      "ø": 181,
      "ù": 182,
      "ú": 183,
      "û": 184,
      "ü": 185,
      "ý": 186,
      "þ": 187,
      "ÿ": 188,
      "Ā": 189,
      "ā": 190,
      "Ă": 191,
      "ă": 192,
      "Ą": 193,
      "ą": 194,
      "Ć": 195,
      "ć": 196,
      "Ĉ": 197,
      "ĉ": 198,
      "Ċ": 199,
      "ċ": 200,
      "Č": 201,
      "č": 202,
      "Ď": 203,
      "ď": 204,
      "Đ": 205,
      "đ": 206,
      "Ē": 207,
      "ē": 208,
      "Ĕ": 209,
      "ĕ": 210,
      "Ė": 211,
      "ė": 212,
      "Ę": 213,
      "ę": 214,
      "Ě": 215,
      "ě": 216,
      "Ĝ": 217,
      "ĝ": 218,
      "Ğ": 219,
      "ğ": 220,
      "Ġ": 221,
      "ġ": 222,
      "Ģ": 223,
      "ģ": 224,
      "Ĥ": 225,
      "ĥ": 226,
      "Ħ": 227,
      "ħ": 228,
      "Ĩ": 229,
      "ĩ": 230,
      "Ī": 231,
      "ī": 232,
      "Ĭ": 233,
      "ĭ": 234,
      "Į": 235,
      "į": 236,
      "İ": 237,
      "ı": 238,
      "Ĳ": 239,
      "ĳ": 240,
      "Ĵ": 241,
      "ĵ": 242,
      "Ķ": 243,
      "ķ": 244,
      "ĸ": 245,
      "Ĺ": 246,
      "ĺ": 247,
      "Ļ": 248,
      "ļ": 249,
      "Ľ": 250,
      "ľ": 251,
      "Ŀ": 252,
      "ŀ": 253,
      "Ł": 254,
      "ł": 255,
      "Ń": 256,
      "ï¼": 257,
      "ä¸": 258,
      "ãĢ": 259,
      "ï¼Į": 260,
      "äº": 261,
      "çļ": 262,
      "çļĦ": 263,
      "ãĢĤ": 264,
      "æľ": 265,
      "åı": 266,
      "åħ": 267,
      "å¹": 268,
      "ä»": 269,
      "å¤": 270,
      "åľ": 271,
      "åĲ": 272,
      "åĪ": 273,
      "å¹´": 274,
      "å®": 275,
      "åĽ": 276,
      "çĶ": 277,
      "ä½": 278,
      "åį": 279,
      "æĹ": 280,
      "ãĢģ": 281,
      "å°": 282,
      "æĸ": 283,
      "æĺ": 284,
      "ä¹": 285,
      "è¿": 286,
      "ç»": 287,
      "åŃ": 288,
      "Ġ*": 289,
      "æĪ": 290,
      "åľ¨": 291,
      "ä¸Ģ": 292,
      "ï¼Ī": 293,
      "ï¼ī": 294,
      "ä¸º": 295,
      "ä¼": 296,
      "åĬ": 297,
      "å¸": 298,
      "åĮ": 299,
      "åĨ": 300,
      "æĿ": 301,
      "è¯": 302,
      "ä¸Ń": 303,
      "å·": 304,
      "æĺ¯": 305,
      "çī": 306,
      "è®": 307,
      "å¾": 308,
      "åĽ½": 309,
      "å¼": 310,
      "åº": 311,
      "éĩ": 312,
      "çº": 313,
      "å¤§": 314,
      "äºº": 315,
      "å±": 316,
      "ç§": 317,
      "äºİ": 318,
      "æī": 319,
      "åĩ": 320,
      "20": 321,
      "éĥ": 322,
      "æľī": 323,
      "è¡": 324,
      "éĢ": 325,
      "èµ": 326,
      "åİ": 327,
      "åĴ": 328,
      "æŃ": 329,
      "æľĪ": 330,
      "å¥": 331,
      "åĴĮ": 332,
      "å½": 333,
      "çİ": 334,
      "éĻ": 335,
      "èĢ": 336,
      "çĽ": 337,
      "æķ": 338,
      "æĹ¥": 339,
      "æĶ": 340,
      "19": 341,
      "éĺ": 342,
      "å¯": 343,
      "æĭ": 344,
      "èĩ": 345,
      "âĢ": 346,
      "æł": 347,
      "åĲİ": 348,
      "æ°": 349,
      "åŃ¦": 350,
      "æ²": 351,
      "æ³": 352,
      "ç«": 353,
      "ä»¥": 354,
      "æµ": 355,
      "è§": 356,
      "åĳ": 357,
      "äºĨ": 358,
      "ï¼ļ": 359,
      "çĲ": 360,
      "è½": 361,
      "æĹ¶": 362,
      "åī": 363,
      "è´": 364,
      "æĪĲ": 365,
      "è¾": 366,
      "åľ°": 367,
      "æĸ¯": 368,
      "åŁ": 369,
      "éĹ": 370,
      "ç¬": 371,
      "æĢ": 372,
      "ä¸Ĭ": 373,
      "åĩº": 374,
      "ä¼ļ": 375,
      "ä»ĸ": 376,
      "æ¯": 377,
      "çĶŁ": 378,
      "ä¸ª": 379,
      "æ´": 380,
      "ãĢĭ": 381,
      "ãĢĬ": 382,
      "æŀ": 383,
      "éĥ¨": 384,
      "éķ": 385,
      "Â·": 386,
      "æĽ": 387,
      "æ¸": 388,
      "ä½ľ": 389,
      "ä¸į": 390,
      "ä¸İ": 391,
      "ä¹ĭ": 392,
      "éĿ": 393,
      "ç¬¬": 394,
      "éģ": 395,
      "èĥ": 396,
      "æĬ": 397,
      "åĲį": 398,
      "åħ¬": 399,
      "è¡Į": 400,
      "å°Ķ": 401,
      "ä¿": 402,
      "åĮº": 403,
      "ä¸»": 404,
      "è¥": 405,
      "æİ": 406,
      "å®¶": 407,
      "ç½": 408,
      "è¥¿": 409,
      "åĪĨ": 410,
      "åħ¶": 411,
      "è¢": 412,
      "åŃĲ": 413,
      "è·": 414,
      "åıĳ": 415,
      "éĽ": 416,
      "å¿": 417,
      "çŃ": 418,
      "æ±": 419,
      "æľ¬": 420,
      "ç¾": 421,
      "æ¬": 422,
      "åĨĽ": 423,
      "é¦": 424,
      "çĶ¨": 425,
      "å»": 426,
      "åĵ": 427,
      "åĪ°": 428,
      "è¢«": 429,
      "å§": 430,
      "ä¾": 431,
      "é¢": 432,
      "å¹¶": 433,
      "åįĹ": 434,
      "èĭ": 435,
      "èģ": 436,
      "èī": 437,
      "èĢĮ": 438,
      "ä¸ĭ": 439,
      "çī¹": 440,
      "éķ¿": 441,
      "é©": 442,
      "çľ": 443,
      "åıĬ": 444,
      "ç±": 445,
      "çĶ±": 446,
      "å¸Ĥ": 447,
      "ä½į": 448,
      "ä¸ī": 449,
      "èµĽ": 450,
      "æĮ": 451,
      "ä¸ľ": 452,
      "201": 453,
      "æľĢ": 454,
      "æĿ¥": 455,
      "å¾·": 456,
      "åħĭ": 457,
      "èİ": 458,
      "åĲĮ": 459,
      "æ³ķ": 460,
      "ãĥ": 461,
      "é«": 462,
      "åĮĹ": 463,
      "å¼Ģ": 464,
      "éģĵ": 465,
      "éĩĮ": 466,
      "æĸ¹": 467,
      "é«ĺ": 468,
      "æĸ°": 469,
      "çĶµ": 470,
      "åı¯": 471,
      "ç¥": 472,
      "å¤ļ": 473,
      "å²": 474,
      "æĻ": 475,
      "å£": 476,
      "çŁ": 477,
      "äºļ": 478,
      "çī©": 479,
      "èĩª": 480,
      "åīį": 481,
      "è¿Ļ": 482,
      "åĿ": 483,
      "è·¯": 484,
      "200": 485,
      "äºĮ": 486,
      "åĳĺ": 487,
      "åĬł": 488,
      "æĸĩ": 489,
      "åĪ©": 490,
      "åĬ¨": 491,
      "ä»»": 492,
      "å¯¹": 493,
      "è½¦": 494,
      "çĲĥ": 495,
      "ä¸ĸ": 496,
      "èĪ": 497,
      "ãģ": 498,
      "å±±": 499,
      "å¾Ĺ": 500,
      "èĬ": 501,
      "ç¾İ": 502,
      "å¦": 503,
      "å»º": 504,
      "æ¼": 505,
      "èĩ³": 506,
      "æµ·": 507,
      "æľº": 508,
      "æīĢ": 509,
      "ç©": 510,
      "åįģ": 511,
      "å°ı": 512,
      "é¡": 513,
      "ä»£": 514,
      "çİ°": 515,
      "äºĭ": 516,
      "åĽł": 517,
      "æĪĺ": 518,
      "¦ģ": 519,
      "èĲ": 520,
      "é©¬": 521,
      "éĹ´": 522,
      "æĭī": 523,
      "åħ¥": 524,
      "çķ": 525,
      "åĨħ": 526,
      "éĺŁ": 527,
      "ä¹Ł": 528,
      "è¿Ľ": 529,
      "è°": 530,
      "ç»ı": 531,
      "è¿ĩ": 532,
      "éĵ": 533,
      "éļ": 534,
      "çĪ": 535,
      "ãĢĮ": 536,
      "ãĢį": 537,
      "æķĻ": 538,
      "åľº": 539,
      "æŃ¤": 540,
      "å¤©": 541,
      "âĢľ": 542,
      "âĢĿ": 543,
      "å°Ĩ": 544,
      "åĲĪ": 545,
      "åı°": 546,
      "è¶": 547,
      "è¦ģ": 548,
      "çº¿": 549,
      "çŃī": 550,
      "çİĭ": 551,
      "æĶ¿": 552,
      "èĤ": 553,
      "å·ŀ": 554,
      "çĻ": 555,
      "ç¤": 556,
      "å¹³": 557,
      "ä½ĵ": 558,
      "æľŁ": 559,
      "ãĤ": 560,
      "èĥ½": 561,
      "å·¥": 562,
      "çĲĨ": 563,
      "æĥ": 564,
      "åĪ¶": 565,
      "é£": 566,
      "ä¸ļ": 567,
      "ç«Ļ": 568,
      "éĢļ": 569,
      "æ¬¡": 570,
      "è®¾": 571,
      "æ¼Ķ": 572,
      "ç«ĭ": 573,
      "ç®": 574,
      "å½ĵ": 575,
      "å¤ĸ": 576,
      "åº¦": 577,
      "ç§ĳ": 578,
      "æ°ĳ": 579,
      "æĦ": 580,
      "åĮĸ": 581,
      "ä½Ĩ": 582,
      "éŁ": 583,
      "ç½Ĺ": 584,
      "å¸ĥ": 585,
      "éĿ¢": 586,
      "å®ī": 587,
      "ç§į": 588,
      "ä½¿": 589,
      "åı·": 590,
      "ï¼īï¼Į": 591,
      "èģĶ": 592,
      "æŁ": 593,
      "10": 594,
      "èĢħ": 595,
      "æı": 596,
      "åħ¨": 597,
      "å®ļ": 598,
      "ç¼": 599,
      "ç³": 600,
      "æģ": 601,
      "åİŁ": 602,
      "æ¯Ķ": 603,
      "ç¦": 604,
      "ç§°": 605,
      "åŁİ": 606,
      "éĻ¢": 607,
      "æ¡": 608,
      "é»": 609,
      "éĩį": 610,
      "çł": 611,
      "è¡¨": 612,
      "è¯¥": 613,
      "éĤ": 614,
      "çĤ": 615,
      "æĢ§": 616,
      "ï¼Ľ": 617,
      "éĩĳ": 618,
      "åı¸": 619,
      "ä¸¤": 620,
      "éĥ½": 621,
      "åĬĽ": 622,
      "åİ¿": 623,
      "å£«": 624,
      "ä¸Ģä¸ª": 625,
      "æį": 626,
      "åĽĽ": 627,
      "æĺİ": 628,
      "çĽ¸": 629,
      "å¥³": 630,
      "éħ": 631,
      "çľģ": 632,
      "æł¼": 633,
      "å¼ı": 634,
      "å½±": 635,
      "èį": 636,
      "çģ": 637,
      "åŁº": 638,
      "æ°´": 639,
      "å¢": 640,
      "åı²": 641,
      "èĳ": 642,
      "å¡": 643,
      "ç³»": 644,
      "ç¨": 645,
      "er": 646,
      "åħ°": 647,
      "æŃ£": 648,
      "å°¼": 649,
      "åŀ": 650,
      "ç±³": 651,
      "çº¦": 652,
      "ç»Ħ": 653,
      "çĽ®": 654,
      "åģ": 655,
      "èĭ±": 656,
      "éĺ¿": 657,
      "æ£": 658,
      "ä¹Ĳ": 659,
      "æ®": 660,
      "åħĥ": 661,
      "è¾¾": 662,
      "18": 663,
      "åĪĹ": 664,
      "è¿Ĳ": 665,
      "èī²": 666,
      "an": 667,
      "æķ°": 668,
      "æ²»": 669,
      "æ¹": 670,
      "é¥": 671,
      "é¦ĸ": 672,
      "èµ·": 673,
      "åħ³": 674,
      "åĶ": 675,
      "ä¸ŃåĽ½": 676,
      "æĶ¹": 677,
      "æĢ»": 678,
      "éĢī": 679,
      "æīĭ": 680,
      "00": 681,
      "æŀĹ": 682,
      "çĦ": 683,
      "å¨": 684,
      "å±ŀ": 685,
      "æĪĸ": 686,
      "è®¡": 687,
      "Ġ19": 688,
      "ä»¬": 689,
      "åħ±": 690,
      "ä»İ": 691,
      "åİĨ": 692,
      "å¿ĥ": 693,
      "åı£": 694,
      "é¾": 695,
      "æ¸¯": 696,
      "è§Ĩ": 697,
      "å¸¸": 698,
      "æ¶": 699,
      "æĿĳ": 700,
      "éĶ": 701,
      "åĲĳ": 702,
      "éŁ³": 703,
      "è£": 704,
      "åł": 705,
      "12": 706,
      "on": 707,
      "åī§": 708,
      "æĹł": 709,
      "æ·": 710,
      "éľ": 711,
      "åĢ": 712,
      "äº¤": 713,
      "å¦Ĥ": 714,
      "ç´": 715,
      "æ²³": 716,
      "ç»ĵ": 717,
      "äº§": 718,
      "å·´": 719,
      "æ¢": 720,
      "æĽ²": 721,
      "çķĮ": 722,
      "ç»Ł": 723,
      "çº§": 724,
      "åĵģ": 725,
      "æİ¥": 726,
      "æıĲ": 727,
      "in": 728,
      "ä¹¦": 729,
      "åįİ": 730,
      "éĴ": 731,
      "åŀĭ": 732,
      "æĴ": 733,
      "éĽĨ": 734,
      "éĹ¨": 735,
      "çĦ¶": 736,
      "åĭ": 737,
      "èİ·": 738,
      "å¹¿": 739,
      "éª": 740,
      "ä¿Ŀ": 741,
      "å¤ª": 742,
      "åį¡": 743,
      "è¯Ń": 744,
      "ç±»": 745,
      "éĩı": 746,
      "åıĤ": 747,
      "äºĶ": 748,
      "æĽ¾": 749,
      "å½¢": 750,
      "å¤«": 751,
      "æĺŁ": 752,
      "ç»´": 753,
      "å®ŀ": 754,
      "è¯´": 755,
      "çĽ´": 756,
      "éĵģ": 757,
      "åĬ¡": 758,
      "ç¥ŀ": 759,
      "æł¡": 760,
      "æĦı": 761,
      "çĥ": 762,
      "é¾Ļ": 763,
      "åºľ": 764,
      "èº": 765,
      "æº": 766,
      "åĽ¢": 767,
      "é¦Ļ": 768,
      "å§ĭ": 769,
      "ar": 770,
      "åĮħ": 771,
      "çĭ": 772,
      "å°±": 773,
      "11": 774,
      "ä¼ł": 775,
      "ç¾İåĽ½": 776,
      "æ±Ł": 777,
      "å¸Ī": 778,
      "åıĹ": 779,
      "åįķ": 780,
      "å²Ľ": 781,
      "ä¸ĩ": 782,
      "çŁ³": 783,
      "æµģ": 784,
      "å¯¼": 785,
      "èº«": 786,
      "ä¹ī": 787,
      "ç¨ĭ": 788,
      "èĮ": 789,
      "åı¤": 790,
      "åħ¬åı¸": 791,
      "é¥°": 792,
      "çı": 793,
      "çĤ¹": 794,
      "ç©º": 795,
      "çºª": 796,
      "åĽŀ": 797,
      "çĹ": 798,
      "èĻ": 799,
      "å¥ĸ": 800,
      "å¥¥": 801,
      "æ»": 802,
      "åĪĻ": 803,
      "é²": 804,
      "ç®¡": 805,
      "æ¸¸": 806,
      "å¤§åŃ¦": 807,
      "å·²": 808,
      "çĿ": 809,
      "æľ¯": 810,
      "æĥħ": 811,
      "é¢Ĩ": 812,
      "è®®": 813,
      "en": 814,
      "ä½įäºİ": 815,
      "å¤Ħ": 816,
      "èĳĹ": 817,
      "ç¤¾": 818,
      "ç¿": 819,
      "èĬĤ": 820,
      "ç²": 821,
      "çĶ°": 822,
      "æľĿ": 823,
      "15": 824,
      "æĮĩ": 825,
      "çĬ": 826,
      "åĩ»": 827,
      "èĦ": 828,
      "ï¼īãĢĤ": 829,
      "å®ĺ": 830,
      "âĢĶ": 831,
      "çīĩ": 832,
      "äº¬": 833,
      "Ġ201": 834,
      "éĢł": 835,
      "åħī": 836,
      "èĴ": 837,
      "199": 838,
      "è§Ĵ": 839,
      "æĪĲä¸º": 840,
      "åĸ": 841,
      "å±ķ": 842,
      "åºĶ": 843,
      "éķĩ": 844,
      "å¼ł": 845,
      "æĹ¥æľ¬": 846,
      "çĻ½": 847,
      "çº³": 848,
      "å¥¹": 849,
      "ç¼ĸ": 850,
      "äºĽ": 851,
      "åĪ«": 852,
      "çłĶ": 853,
      "åŃĹ": 854,
      "æĽ´": 855,
      "å¤´": 856,
      "å°ĳ": 857,
      "åıĺ": 858,
      "æ´²": 859,
      "åķ": 860,
      "åŃ£": 861,
      "ç¬¬ä¸Ģ": 862,
      "çĸ": 863,
      "æŃ¦": 864,
      "è¿ĺ": 865,
      "èĭı": 866,
      "ä¼Ĭ": 867,
      "è®¤": 868,
      "è½¬": 869,
      "æĳ": 870,
      "ä¿¡": 871,
      "æĿİ": 872,
      "èģĮ": 873,
      "çĵ": 874,
      "æ´»": 875,
      "Ġ(": 876,
      "åıª": 877,
      "æīĵ": 878,
      "æ³¢": 879,
      "å±Ģ": 880,
      "æŃĮ": 881,
      "åĳ½": 882,
      "ĠãĢĬ": 883,
      "or": 884,
      "å¸¦": 885,
      "æĻ®": 886,
      "èµĦ": 887,
      "æĮģ": 888,
      "åıĸ": 889,
      "è¿ĳ": 890,
      "é¦Ļæ¸¯": 891,
      "è¶³": 892,
      "åħµ": 893,
      "çīĪ": 894,
      "è¿ŀ": 895,
      "ç¡": 896,
      "al": 897,
      "åĽ¾": 898,
      "åĳ¨": 899,
      "åħŃ": 900,
      "åĽ½å®¶": 901,
      "éĻħ": 902,
      "çĪ±": 903,
      "åĲĦ": 904,
      "åľ£": 905,
      "å¼Ģå§ĭ": 906,
      "ä½¿çĶ¨": 907,
      "ä¸ĵ": 908,
      "èı": 909,
      "é£İ": 910,
      "å®ĥ": 911,
      "çŁ¥": 912,
      "ä¸¾": 913,
      "æ®µ": 914,
      "æ¨": 915,
      "åİ»": 916,
      "åľ°åĮº": 917,
      "æĶ¶": 918,
      "åĪĿ": 919,
      "æĹı": 920,
      "æ²¡": 921,
      "åı¯ä»¥": 922,
      "åĦ": 923,
      "ç¦ı": 924,
      "16": 925,
      "çĳ": 926,
      "åıĪ": 927,
      "æłĩ": 928,
      "è®°": 929,
      "æĶ¯": 930,
      "æ¸ħ": 931,
      "ç©¶": 932,
      "åĻ": 933,
      "å§Ķ": 934,
      "äº²": 935,
      "åĨ³": 936,
      "æį®": 937,
      "ä¸ĸçķĮ": 938,
      "çļĦä¸Ģ": 939,
      "åħĪ": 940,
      "è±": 941,
      "å¸Ŀ": 942,
      "èĬ±": 943,
      "æĿ¡": 944,
      "ĠS": 945,
      "éĺ³": 946,
      "éĿŀ": 947,
      "èĹ": 948,
      "æĭ¬": 949,
      "çłĶç©¶": 950,
      "17": 951,
      "æ°Ķ": 952,
      "çĮ": 953,
      "å®Ĺ": 954,
      "åĽŃ": 955,
      "åº§": 956,
      "çĶµå½±": 957,
      "åıį": 958,
      "åĪĽ": 959,
      "æĶ¾": 960,
      "è§£": 961,
      "åİĨåı²": 962,
      "at": 963,
      "Ġ-": 964,
      "ä¸»è¦ģ": 965,
      "åĮħæĭ¬": 966,
      "æŀĦ": 967,
      "æł¹": 968,
      "åĦ¿": 969,
      "å¾Ģ": 970,
      "ç¦»": 971,
      "åĨį": 972,
      "åħ«": 973,
      "è¿Ľè¡Į": 974,
      "æľª": 975,
      "æŀľ": 976,
      "es": 977,
      "å®Į": 978,
      "æĪı": 979,
      "ä»Ĭ": 980,
      "å·Ŀ": 981,
      "åķĨ": 982,
      "é¦Ĩ": 983,
      "çĪ¶": 984,
      "å¤į": 985,
      "å¡Ķ": 986,
      "æĴŃ": 987,
      "æ¯į": 988,
      "åĻ¨": 989,
      "ä»¥åıĬ": 990,
      "æŃ»": 991,
      "åĨł": 992,
      "æ´Ľ": 993,
      "å¨ģ": 994,
      "é»Ħ": 995,
      "è£ħ": 996,
      "åĲī": 997,
      "æ¥": 998,
      "çĶµè§Ĩ": 999,
      "åĪĴ": 1000,
      "çĶ»": 1001,
      "åį«": 1002,
      "ç¬¬äºĮ": 1003,
      "é¡¹": 1004,
      "åį³": 1005,
      "ç»Ī": 1006,
      "æĬ¥": 1007,
      "Ġ200": 1008,
      "éĽ·": 1009,
      "ĠC": 1010,
      "åįļ": 1011,
      "è®º": 1012,
      "é¸": 1013,
      "ç½®": 1014,
      "å½ķ": 1015,
      "æ¹¾": 1016,
      "21": 1017,
      "èĲ¥": 1018,
      "åľŁ": 1019,
      "èħ": 1020,
      "èİ·å¾Ĺ": 1021,
      "æ¬§": 1022,
      "ç¤º": 1023,
      "å¥½": 1024,
      "éĢŁ": 1025,
      "éŃ": 1026,
      "å¼º": 1027,
      "è§Ĥ": 1028,
      "éĥ¨åĪĨ": 1029,
      "èĤ²": 1030,
      "åĵĪ": 1031,
      "æ±ī": 1032,
      "è´¨": 1033,
      "åįĩ": 1034,
      "æķħ": 1035,
      "è¶ħ": 1036,
      "èĲ¨": 1037,
      "ä¼¯": 1038,
      "ä»ĸä»¬": 1039,
      "è¾¹": 1040,
      "è§ģ": 1041,
      "åħ¶ä»ĸ": 1042,
      "æ¯ı": 1043,
      "éļı": 1044,
      "æ²¡æľī": 1045,
      "æĬķ": 1046,
      "ç»Ń": 1047,
      "14": 1048,
      "å±ħ": 1049,
      "198": 1050,
      "éĿĴ": 1051,
      "çļĩ": 1052,
      "ä¿®": 1053,
      "å¸Į": 1054,
      "èīº": 1055,
      "æĺ¯ä¸Ģ": 1056,
      "ä»¶": 1057,
      "åĬŁ": 1058,
      "çĵ¦": 1059,
      "ic": 1060,
      "ä»¤": 1061,
      "çĶ·": 1062,
      "is": 1063,
      "æľ¨": 1064,
      "ç»Ļ": 1065,
      "è°ĥ": 1066,
      "åĬ©": 1067,
      "éĻĨ": 1068,
      "è¾ĥ": 1069,
      "çĹħ": 1070,
      "ä¸ĥ": 1071,
      "ä¹Ŀ": 1072,
      "åŃĺ": 1073,
      "çģ«": 1074,
      "æºĲ": 1075,
      "åĬŀ": 1076,
      "éº": 1077,
      "ä¼¦": 1078,
      "åħ·": 1079,
      "13": 1080,
      "åĮ»": 1081,
      "äº¦": 1082,
      "ä¾ĭ": 1083,
      "å®¢": 1084,
      "æĶ»": 1085,
      "å¼ķ": 1086,
      "æĿĥ": 1087,
      "æĬ¤": 1088,
      "æ°ı": 1089,
      "Ġåľ¨": 1090,
      "çŃĳ": 1091,
      "éĥ¡": 1092,
      "æľį": 1093,
      "æļ": 1094,
      "åħ¶ä¸Ń": 1095,
      "åĥ": 1096,
      "ä¸Ķ": 1097,
      "åħļ": 1098,
      "å²ģ": 1099,
      "å¿Ĺ": 1100,
      "é¢ĺ": 1101,
      "é£ŀ": 1102,
      "äºī": 1103,
      "åŃ¦éĻ¢": 1104,
      "éĻ¤": 1105,
      "éħį": 1106,
      "å¡ŀ": 1107,
      "å®¤": 1108,
      "çª": 1109,
      "åłĤ": 1110,
      "å·±": 1111,
      "æĭħ": 1112,
      "æ´¾": 1113,
      "è®¸": 1114,
      "ï¼į": 1115,
      "åĭĴ": 1116,
      "èĪª": 1117,
      "å¾Ī": 1118,
      "çº¢": 1119,
      "ä»½": 1120,
      "el": 1121,
      "é²ģ": 1122,
      "èĥľ": 1123,
      "éĻĪ": 1124,
      "çľŁ": 1125,
      "22": 1126,
      "è½¦ç«Ļ": 1127,
      "åħ´": 1128,
      "çİ¯": 1129,
      "æ¡¥": 1130,
      "æ²Ļ": 1131,
      "åįı": 1132,
      "æ£®": 1133,
      "æĹ©": 1134,
      "æĬĢ": 1135,
      "çĶ²": 1136,
      "çĶ±äºİ": 1137,
      "åºĦ": 1138,
      "èĢģ": 1139,
      "ĠM": 1140,
      "æĪĳ": 1141,
      "è¯Ħ": 1142,
      "è§Ħ": 1143,
      "é£Ł": 1144,
      "å¥ĩ": 1145,
      "åĺ": 1146,
      "30": 1147,
      "çıŃ": 1148,
      "å¤ĩ": 1149,
      "äººæ°ĳ": 1150,
      "Ġé¥°": 1151,
      "è¯º": 1152,
      "è¡Ĺ": 1153,
      "çĬ¶": 1154,
      "é»ĳ": 1155,
      "æ¹ĸ": 1156,
      "ä»ĸçļĦ": 1157,
      "çİĩ": 1158,
      "æĶ¿åºľ": 1159,
      "éĤ£": 1160,
      "æĿĢ": 1161,
      "åĽ½éĻħ": 1162,
      "åıĮ": 1163,
      "ç¢": 1164,
      "èİ±": 1165,
      "æīĺ": 1166,
      "æŁ¥": 1167,
      "èĩ´": 1168,
      "èĲ½": 1169,
      "åı¦": 1170,
      "åŁŁ": 1171,
      "çĻ¾": 1172,
      "ãĢĭï¼Ī": 1173,
      "ï¼īãĢģ": 1174,
      "æĤ": 1175,
      "æ¦": 1176,
      "å±Ĥ": 1177,
      "ç§¯": 1178,
      "å¢ĥ": 1179,
      "ä¹ĭåĲİ": 1180,
      "åĪĺ": 1181,
      "è®¤ä¸º": 1182,
      "å®¹": 1183,
      "ä¹¡": 1184,
      "æł·": 1185,
      "è¯ķ": 1186,
      "çĽŁ": 1187,
      "ç»§": 1188,
      "åį°": 1189,
      "å®£": 1190,
      "æĺĵ": 1191,
      "ä¸ŃçļĦ": 1192,
      "æ¸¸æĪı": 1193,
      "åĽ´": 1194,
      "è¨": 1195,
      "æ½": 1196,
      "æİ¨": 1197,
      "è¨Ģ": 1198,
      "åĽłä¸º": 1199,
      "èĩªå·±": 1200,
      "å¤±": 1201,
      "åĽłæŃ¤": 1202,
      "ä¸Ńå¿ĥ": 1203,
      "æģ©": 1204,
      "éĻĲ": 1205,
      "å»ºçŃĳ": 1206,
      "å°Ħ": 1207,
      "åĩĨ": 1208,
      "éĩİ": 1209,
      "å´": 1210,
      "ä½ľä¸º": 1211,
      "åĵ¥": 1212,
      "æ·±": 1213,
      "25": 1214,
      "åįĬ": 1215,
      "it": 1216,
      "æµİ": 1217,
      "çĻ»": 1218,
      "æ³ķåĽ½": 1219,
      "æĦŁ": 1220,
      "å·¥ä½ľ": 1221,
      "å¢ŀ": 1222,
      "å§Ĩ": 1223,
      "åıĳçİ°": 1224,
      "æĻ¯": 1225,
      "ä¾Ľ": 1226,
      "å©": 1227,
      "éŁ³ä¹Ĳ": 1228,
      "æ¤": 1229,
      "æĽ¼": 1230,
      "ĠA": 1231,
      "ä½³": 1232,
      "è´Ŀ": 1233,
      "å®«": 1234,
      "æİĴ": 1235,
      "é¡¿": 1236,
      "é¹": 1237,
      "å¯Ĩ": 1238,
      "æħ": 1239,
      "ä¹ĭä¸Ģ": 1240,
      "è®¾è®¡": 1241,
      "éĹ®": 1242,
      "äºĳ": 1243,
      "è´¥": 1244,
      "å£°": 1245,
      "çħ": 1246,
      "ç¾¤": 1247,
      "æķ´": 1248,
      "éĵģè·¯": 1249,
      "æ¨¡": 1250,
      "æĸ½": 1251,
      "èĢĥ": 1252,
      "åī¯": 1253,
      "ĠB": 1254,
      "æ¯ĶèµĽ": 1255,
      "åŃ¦æł¡": 1256,
      "ä½ľåĵģ": 1257,
      "åĿĩ": 1258,
      "æ±Ĥ": 1259,
      "åı¯èĥ½": 1260,
      "åĲĮæĹ¶": 1261,
      "çĭ¬": 1262,
      "ç½ĳ": 1263,
      "ä¼Ĺ": 1264,
      "am": 1265,
      "å®ģ": 1266,
      "åĨłåĨĽ": 1267,
      "åįĥ": 1268,
      "èĭ±åĽ½": 1269,
      "åıĭ": 1270,
      "åĥı": 1271,
      "åĵį": 1272,
      "å½ĵæĹ¶": 1273,
      "ä¿Ħ": 1274,
      "è¶Ĭ": 1275,
      "ç¥ĸ": 1276,
      "æĭħä»»": 1277,
      "å±Ĭ": 1278,
      "ä¾§": 1279,
      "åº·": 1280,
      "æ³°": 1281,
      "åŁĥ": 1282,
      "å¾ģ": 1283,
      "æ¥¼": 1284,
      "il": 1285,
      "åħ¸": 1286,
      "å§Ķåĳĺ": 1287,
      "197": 1288,
      "éĺ²": 1289,
      "us": 1290,
      "æĥ³": 1291,
      "ĠP": 1292,
      "è¿ª": 1293,
      "é±": 1294,
      "åĳĬ": 1295,
      "å¤ı": 1296,
      "è¿ĲåĬ¨": 1297,
      "æŃ¥": 1298,
      "åĶ±": 1299,
      "é±¼": 1300,
      "ä½ķ": 1301,
      "æĹ¶éĹ´": 1302,
      "æ¾": 1303,
      "èĪ°": 1304,
      "è¯ģ": 1305,
      "çĥŃ": 1306,
      "è®©": 1307,
      "ä½ı": 1308,
      "å®Ī": 1309,
      "æĪ¿": 1310,
      "195": 1311,
      "ä»£è¡¨": 1312,
      "çķĻ": 1313,
      "è±¡": 1314,
      "éĩĩ": 1315,
      "æīį": 1316,
      "ol": 1317,
      "çĶº": 1318,
      "åĨĻ": 1319,
      "ç§°ä¸º": 1320,
      "åı°æ¹¾": 1321,
      "23": 1322,
      "éĵ¶": 1323,
      "å¯Ł": 1324,
      "ç´¢": 1325,
      "çĳŀ": 1326,
      "è¶³çĲĥ": 1327,
      "æķĪ": 1328,
      "è´¹": 1329,
      "æŃ¢": 1330,
      "ä¸½": 1331,
      "çīĻ": 1332,
      "é½": 1333,
      "æİĪ": 1334,
      "éľĢ": 1335,
      "194": 1336,
      "éĢļè¿ĩ": 1337,
      "æ´ĭ": 1338,
      "å¸Ń": 1339,
      "åºĵ": 1340,
      "as": 1341,
      "ç´ł": 1342,
      "ä¸ĸçºª": 1343,
      "æ¸©": 1344,
      "æĸĻ": 1345,
      "ç«ł": 1346,
      "çľĭ": 1347,
      "çĽĳ": 1348,
      "ä¸ģ": 1349,
      "èĮĥ": 1350,
      "Ġ20": 1351,
      "ä¾¿": 1352,
      "ç®Ģ": 1353,
      "å·¦": 1354,
      "åĺī": 1355,
      "åł¡": 1356,
      "èĽ": 1357,
      "çĿĢ": 1358,
      "æ¡Ī": 1359,
      "çīĮ": 1360,
      "åıĳå±ķ": 1361,
      "å±ŀäºİ": 1362,
      "éĻį": 1363,
      "ç»ĩ": 1364,
      "åįł": 1365,
      "å¼Ł": 1366,
      "æī¿": 1367,
      "196": 1368,
      "å®Ŀ": 1369,
      "æ°¸": 1370,
      "æĪĲç«ĭ": 1371,
      "ä¸įåĲĮ": 1372,
      "ch": 1373,
      "èģĶèµĽ": 1374,
      "æŀģ": 1375,
      "çĿ£": 1376,
      "æľĢåĲİ": 1377,
      "éĥİ": 1378,
      "éĻĦ": 1379,
      "è¯Ŀ": 1380,
      "åı¶": 1381,
      "ä½Ľ": 1382,
      "ĠT": 1383,
      "æĿ¾": 1384,
      "ç»Ĩ": 1385,
      "ä¹Į": 1386,
      "ç³»ç»Ł": 1387,
      "å¯Į": 1388,
      "åİħ": 1389,
      "ç²¾": 1390,
      "åĶĲ": 1391,
      "ä¸¹": 1392,
      "ä»į": 1393,
      "èĴĻ": 1394,
      "å¹²": 1395,
      "ur": 1396,
      "ç¤¼": 1397,
      "è½½": 1398,
      "âĢĿãĢĤ": 1399,
      "æĪ·": 1400,
      "ä»ħ": 1401,
      "è¯į": 1402,
      "åĩł": 1403,
      "et": 1404,
      "æµĭ": 1405,
      "ä½İ": 1406,
      "Ġç¬¬": 1407,
      "æĿ¯": 1408,
      "åĲİæĿ¥": 1409,
      "ä»·": 1410,
      "åĪ¶ä½ľ": 1411,
      "è¿ľ": 1412,
      "å°ģ": 1413,
      "å¿µ": 1414,
      "è¿°": 1415,
      "å³": 1416,
      "æĭ¿": 1417,
      "28": 1418,
      "çĨ": 1419,
      "è´Ł": 1420,
      "åºĹ": 1421,
      "æĶ¿æ²»": 1422,
      "æĸĩåĮĸ": 1423,
      "åı³": 1424,
      "å¹´çļĦ": 1425,
      "æ»¡": 1426,
      "æĬĬ": 1427,
      "éħĴ": 1428,
      "æĢģ": 1429,
      "éļĨ": 1430,
      "ç§»": 1431,
      "ä½Ļ": 1432,
      "24": 1433,
      "ç®¡çĲĨ": 1434,
      "åĩºçİ°": 1435,
      "åħ¬éĩĮ": 1436,
      "å¼¹": 1437,
      "éĢĢ": 1438,
      "æĺ¥": 1439,
      "åģľ": 1440,
      "åºĨ": 1441,
      "å·¥ç¨ĭ": 1442,
      "äººåı£": 1443,
      "åĲįä¸º": 1444,
      "æ³¨": 1445,
      "å¼Ĺ": 1446,
      "ç¥¨": 1447,
      "èĪ¹": 1448,
      "æĹħ": 1449,
      "æĺ¾": 1450,
      "åĨľ": 1451,
      "ç»ĥ": 1452,
      "æĢĿ": 1453,
      "æİ§": 1454,
      "åºķ": 1455,
      "ä¹ħ": 1456,
      "æĿ°": 1457,
      "æľŁéĹ´": 1458,
      "å¾ĭ": 1459,
      "ãĢĭï¼Į": 1460,
      "èİ«": 1461,
      "ç¡®": 1462,
      "åĿ¦": 1463,
      "é¢Ħ": 1464,
      "he": 1465,
      "å¹´ä»£": 1466,
      "ion": 1467,
      "æ¢ħ": 1468,
      "åĪ©äºļ": 1469,
      "è¿Ļä¸ª": 1470,
      "èįī": 1471,
      "æĸĹ": 1472,
      "èµ°": 1473,
      "ĠL": 1474,
      "æľĢç»Ī": 1475,
      "éĽĦ": 1476,
      "èĴĤ": 1477,
      "è¾ĳ": 1478,
      "èľ": 1479,
      "æŃ£å¼ı": 1480,
      "ĠçĶŁ": 1481,
      "è½®": 1482,
      "æľĽ": 1483,
      "ãĢįï¼Į": 1484,
      "æī§": 1485,
      "è´£": 1486,
      "çĲĥéĺŁ": 1487,
      "ä¼ĺ": 1488,
      "ä¸ĬçļĦ": 1489,
      "ç§Ģ": 1490,
      "éªĮ": 1491,
      "å¯º": 1492,
      "å°¾": 1493,
      "ä¹ĭéĹ´": 1494,
      "è°·": 1495,
      "le": 1496,
      "æ¾³": 1497,
      "çģµ": 1498,
      "ĠH": 1499,
      "éº¦": 1500,
      "ä¹Łæĺ¯": 1501,
      "åıĤåĬł": 1502,
      "åĢĻ": 1503,
      "å½±åĵį": 1504,
      "æĵ": 1505,
      "å¿«": 1506,
      "æ¶Ī": 1507,
      "åį´": 1508,
      "èį¯": 1509,
      "æĹ§": 1510,
      "ĠR": 1511,
      "ç¤¾ä¼ļ": 1512,
      "è¿ĻäºĽ": 1513,
      "ĠåİĨåı²": 1514,
      "éģĹ": 1515,
      "çł´": 1516,
      "çİĽ": 1517,
      "ro": 1518,
      "å½¹": 1519,
      "åıĳçĶŁ": 1520,
      "æīĢæľī": 1521,
      "è¡Ģ": 1522,
      "èĹı": 1523,
      "50": 1524,
      "æłĳ": 1525,
      "èį£": 1526,
      "è¿Ľåħ¥": 1527,
      "çļ®": 1528,
      "å°ļ": 1529,
      "èī¾": 1530,
      "æ²¹": 1531,
      "äººçļĦ": 1532,
      "æī¹": 1533,
      "å»¶": 1534,
      "çŁŃ": 1535,
      "æĲ": 1536,
      "æł¹æį®": 1537,
      "åŃĻ": 1538,
      "æľĢä½³": 1539,
      "re": 1540,
      "ç¬¬ä¸ī": 1541,
      "è®¡åĪĴ": 1542,
      "çħ§": 1543,
      "çļĦä¸Ģä¸ª": 1544,
      "èĵ": 1545,
      "ç¯": 1546,
      "å§Ķåĳĺä¼ļ": 1547,
      "ä¼¼": 1548,
      "ç½Ĺæĸ¯": 1549,
      "26": 1550,
      "å¤§çļĦ": 1551,
      "ä¸´": 1552,
      "å¾·åĽ½": 1553,
      "âĢĿï¼Į": 1554,
      "ĠG": 1555,
      "èĬĤçĽ®": 1556,
      "åĲ«": 1557,
      "æľĹ": 1558,
      "ãĢĭãĢģ": 1559,
      "åĨµ": 1560,
      "ç«¯": 1561,
      "åĮĹäº¬": 1562,
      "æĸŃ": 1563,
      "èŃ": 1564,
      "æĹ¶æľŁ": 1565,
      "å¤®": 1566,
      "èĥĮ": 1567,
      "é¡º": 1568,
      "æ¤į": 1569,
      "æĳĦ": 1570,
      "çªģ": 1571,
      "ç»ıæµİ": 1572,
      "ä¾Ŀ": 1573,
      "éĺµ": 1574,
      "æĿ¨": 1575,
      "æĻĭ": 1576,
      "åģļ": 1577,
      "ãĥ¼": 1578,
      "éĽħ": 1579,
      "ä¸Ĭæµ·": 1580,
      "é¼": 1581,
      "é³": 1582,
      "åĸľ": 1583,
      "åŁİå¸Ĥ": 1584,
      "è¯·": 1585,
      "åħ±åĴĮ": 1586,
      "èĢ¶": 1587,
      "ĠD": 1588,
      "éĤ¦": 1589,
      "ç»Ħç»ĩ": 1590,
      "èŃ¦": 1591,
      "å½Ĵ": 1592,
      "æ´¥": 1593,
      "äººçī©": 1594,
      "å¼Ĥ": 1595,
      "æģ¯": 1596,
      "äº¡": 1597,
      "èı²": 1598,
      "ä¼¤": 1599,
      "ãĢįãĢĤ": 1600,
      "æľ«": 1601,
      "éŁ©": 1602,
      "èĤ¡": 1603,
      "å°¼äºļ": 1604,
      "æĪĲåĳĺ": 1605,
      "åºŃ": 1606,
      "27": 1607,
      "æŀ¶": 1608,
      "æĬĢæľ¯": 1609,
      "åĪĹè½¦": 1610,
      "æĳ©": 1611,
      "å®ĭ": 1612,
      "éļ¾": 1613,
      "éĹ»": 1614,
      "æķĻèĤ²": 1615,
      "è¡ĮæĶ¿": 1616,
      "ä¸¤ä¸ª": 1617,
      "èĻ½": 1618,
      "âĢĶâĢĶ": 1619,
      "ç®Ĺ": 1620,
      "æĭ¥": 1621,
      "ĠF": 1622,
      "åİĤ": 1623,
      "æ¼Ķåĳĺ": 1624,
      "ç³»åĪĹ": 1625,
      "Ġ199": 1626,
      "åĲ´": 1627,
      "èĪ¬": 1628,
      "çĶŁæ´»": 1629,
      "un": 1630,
      "åĬ¿": 1631,
      "åį¢": 1632,
      "åŃ¦å®¶": 1633,
      "åıĳè¡Į": 1634,
      "æį¢": 1635,
      "èīºæľ¯": 1636,
      "ãģ®": 1637,
      "è¯»": 1638,
      "om": 1639,
      "åĩºçīĪ": 1640,
      "éĿ¢ç§¯": 1641,
      "èī¯": 1642,
      "æľīä¸Ģ": 1643,
      "æıĲä¾Ľ": 1644,
      "å©ļ": 1645,
      "é¡¶": 1646,
      "è¾ĸ": 1647,
      "èµ«": 1648,
      "Ġï¼Ī": 1649,
      "åĪĩ": 1650,
      "ä»ĭ": 1651,
      "æ¿": 1652,
      "æ´»åĬ¨": 1653,
      "ä¸°": 1654,
      "åİĭ": 1655,
      "æĪĺäºī": 1656,
      "äºĮåįģ": 1657,
      "éĴŁ": 1658,
      "æ¯Ľ": 1659,
      "ä¹ł": 1660,
      "å·²ç»ı": 1661,
      "ãĢĭãĢģãĢĬ": 1662,
      "ä¸Ńå¤®": 1663,
      "è¡¨ç¤º": 1664,
      "äºĨä¸Ģ": 1665,
      "æ²¿": 1666,
      "ãĥ»": 1667,
      "æĸ¯çī¹": 1668,
      "å²©": 1669,
      "éĿ©": 1670,
      "è®¸å¤ļ": 1671,
      "è¯Ĺ": 1672,
      "è½»": 1673,
      "å²¸": 1674,
      "ä¸»ä¹ī": 1675,
      "éª¨": 1676,
      "ac": 1677,
      "ä½Ĳ": 1678,
      "èĩ£": 1679,
      "ä¸»æķĻ": 1680,
      "æ¬§æ´²": 1681,
      "èģĶçĽŁ": 1682,
      "éĩįè¦ģ": 1683,
      "çĩ": 1684,
      "éŃĶ": 1685,
      "000": 1686,
      "è¯Ĩ": 1687,
      "åħ±åĴĮåĽ½": 1688,
      "29": 1689,
      "èĭ¥": 1690,
      "ä½Ĩæĺ¯": 1691,
      "åħ»": 1692,
      "é¸Ł": 1693,
      "è¿½": 1694,
      "ing": 1695,
      "ä¸ºäºĨ": 1696,
      "åĶ®": 1697,
      "éĽĨåĽ¢": 1698,
      "ä¿ĿæĬ¤": 1699,
      "193": 1700,
      "åħ³ç³»": 1701,
      "å®ĮæĪĲ": 1702,
      "æ¯ķ": 1703,
      "éļ¶": 1704,
      "éĢģ": 1705,
      "æĿ¿": 1706,
      "æķħäºĭ": 1707,
      "å¿ħ": 1708,
      "è´µ": 1709,
      "æľīéĻĲ": 1710,
      "æĺł": 1711,
      "of": 1712,
      "åĩºçĶŁ": 1713,
      "éªĳ": 1714,
      "å¸ķ": 1715,
      "åĪ°äºĨ": 1716,
      "ç»Ŀ": 1717,
      "åħ¹": 1718,
      "äºķ": 1719,
      "æĭį": 1720,
      "åĤ": 1721,
      "æĻļ": 1722,
      "åīįå¾Ģ": 1723,
      "æł¸": 1724,
      "çĽĸ": 1725,
      "çĪµ": 1726,
      "é½Ĳ": 1727,
      "åĢ¼": 1728,
      "æľ±": 1729,
      "ĠçĶŁå¹³": 1730,
      "æľįåĬ¡": 1731,
      "åĲ¯": 1732,
      "æ¢ģ": 1733,
      "æ¯Ĵ": 1734,
      "æĪĲåĬŁ": 1735,
      "çĽ®åīį": 1736,
      "çº½": 1737,
      "æĿŁ": 1738,
      "os": 1739,
      "åįģäºĮ": 1740,
      "è§Ĵèī²": 1741,
      "Ġå¤§": 1742,
      "ç»ĦæĪĲ": 1743,
      "æĹĹ": 1744,
      "æĬĹ": 1745,
      "de": 1746,
      "åı·çº¿": 1747,
      "å¾¡": 1748,
      "éħ¸": 1749,
      "ä»ĸåľ¨": 1750,
      "èĪŀ": 1751,
      "åĸĦ": 1752,
      "40": 1753,
      "ç£": 1754,
      "åħ¼": 1755,
      "ç»ĵæŀĦ": 1756,
      "å±ĭ": 1757,
      "åĪĨå¸ĥ": 1758,
      "åħ¨åĽ½": 1759,
      "åĨ³å®ļ": 1760,
      "ä¹ĺ": 1761,
      "åĪĨåĪ«": 1762,
      "çļĦäºº": 1763,
      "ä¸¾è¡Į": 1764,
      "çİī": 1765,
      "çķ¥": 1766,
      "æ³½": 1767,
      "å¾®": 1768,
      "æĭ¥æľī": 1769,
      "åĨ²": 1770,
      "ĠE": 1771,
      "èĪªç©º": 1772,
      "éĶ¦": 1773,
      "äº¤éĢļ": 1774,
      "è¿ģ": 1775,
      "±ä¹Ĳ": 1776,
      "ĠI": 1777,
      "çİ©": 1778,
      "åĲĽ": 1779,
      "å¨ľ": 1780,
      "and": 1781,
      "åĬłåħ¥": 1782,
      "æĿĤ": 1783,
      "åĬ¨çī©": 1784,
      "åį·": 1785,
      "ä¹Ķ": 1786,
      "ä»ģ": 1787,
      "èģĶåĲĪ": 1788,
      "éĹ®é¢ĺ": 1789,
      "ï¼īï¼ļ": 1790,
      "è½¨": 1791,
      "èĻ½çĦ¶": 1792,
      "çļĦåľ°": 1793,
      "è®Ń": 1794,
      "åĩ¯": 1795,
      "åį°åº¦": 1796,
      "ãĥ³": 1797,
      "åıĤä¸İ": 1798,
      "éľĢè¦ģ": 1799,
      "å¤º": 1800,
      "èŀ": 1801,
      "ç¿°": 1802,
      "è¯ĳ": 1803,
      "æĻº": 1804,
      "éĢĲ": 1805,
      "çłģ": 1806,
      "å¦»": 1807,
      "èĸ": 1808,
      "åĪ¤": 1809,
      "çŃ¾": 1810,
      "æľĢé«ĺ": 1811,
      "é¡¹çĽ®": 1812,
      "æķ£": 1813,
      "2010": 1814,
      "å®¾": 1815,
      "å°½": 1816,
      "æĺĮ": 1817,
      "æ¶¯": 1818,
      "èĥ¡": 1819,
      "å»ºç«ĭ": 1820,
      "å¸Ĥéķĩ": 1821,
      "çĪ¶äº²": 1822,
      "çļĦå¤§": 1823,
      "ĠW": 1824,
      "æĺ¯åľ¨": 1825,
      "è¾ĵ": 1826,
      "éĢļå¸¸": 1827,
      "äº¿": 1828,
      "ç§ĳåŃ¦": 1829,
      "éĺ¶": 1830,
      "æĹ¶ä»£": 1831,
      "âĢĵ": 1832,
      "ä»Ģ": 1833,
      "åĮĹéĥ¨": 1834,
      "ä¸¥": 1835,
      "ra": 1836,
      "èģļ": 1837,
      "åĪº": 1838,
      "ä¸Ńåįİ": 1839,
      "é¡»": 1840,
      "å®£å¸ĥ": 1841,
      "æĿľ": 1842,
      "åŃĺåľ¨": 1843,
      "å¼Ģåıĳ": 1844,
      "å·¨": 1845,
      "é»İ": 1846,
      "åħĦ": 1847,
      "Ġæľ¬": 1848,
      "å®ĩ": 1849,
      "çĶ¨äºİ": 1850,
      "èİī": 1851,
      "å¤ľ": 1852,
      "ç±į": 1853,
      "ä¿Ħç½Ĺæĸ¯": 1854,
      "æĿ¥èĩª": 1855,
      "å½ĵåľ°": 1856,
      "çĭ¬ç«ĭ": 1857,
      "æķĳ": 1858,
      "è¡¥": 1859,
      "å¹¶ä¸Ķ": 1860,
      "åľĨ": 1861,
      "æ£Ģ": 1862,
      "æł¼åħ°": 1863,
      "é¦ĸæ¬¡": 1864,
      "çĽĽ": 1865,
      "æ²ĥ": 1866,
      "æľºè½¦": 1867,
      "åħ¬åĽŃ": 1868,
      "ĠN": 1869,
      "çľ¼": 1870,
      "æĿĲ": 1871,
      "é¢ĳ": 1872,
      "çīĽ": 1873,
      "å°ĨåĨĽ": 1874,
      "æºª": 1875,
      "æĸ¹éĿ¢": 1876,
      "æ¬¢": 1877,
      "ri": 1878,
      "ä»ª": 1879,
      "ä¸ĢèĪ¬": 1880,
      "åĲĮå¹´": 1881,
      "çŃĸ": 1882,
      "èĹ¤": 1883,
      "ç»©": 1884,
      "éģŃ": 1885,
      "éĻ©": 1886,
      "æŀª": 1887,
      "å¹³æĸ¹": 1888,
      "åĬ³": 1889,
      "å·®": 1890,
      "æŃĮæĽ²": 1891,
      "èĥŀ": 1892,
      "éĽª": 1893,
      "ä¸Ŀ": 1894,
      "åħį": 1895,
      "éĥĳ": 1896,
      "åħ·æľī": 1897,
      "ç«¥": 1898,
      "Ġof": 1899,
      "è°¢": 1900,
      "æķĮ": 1901,
      "åĨ³èµĽ": 1902,
      "60": 1903,
      "èª": 1904,
      "æĭľ": 1905,
      "çĸĹ": 1906,
      "åŃ¦çĶŁ": 1907,
      "å°ıè¯´": 1908,
      "éĶĢ": 1909,
      "ä¸ĢäºĽ": 1910,
      "éĢĶ": 1911,
      "çĥĪ": 1912,
      "æĮ¥": 1913,
      "ç½Ĺé©¬": 1914,
      "è·Ŀ": 1915,
      "å½¢æĪĲ": 1916,
      "è´Ń": 1917,
      "çĶŁäº§": 1918,
      "ãĢĭãĢĤ": 1919,
      "ä¼ģ": 1920,
      "éŃı": 1921,
      "è´Łè´£": 1922,
      "åĨĪ": 1923,
      "åºı": 1924,
      "åģĩ": 1925,
      "è´¢": 1926,
      "çī¹åĪ«": 1927,
      "æĮī": 1928,
      "é©»": 1929,
      "åª": 1930,
      "è¯¸": 1931,
      "æİ¢": 1932,
      "æľīéĻĲåħ¬åı¸": 1933,
      "éĩĩçĶ¨": 1934,
      "æµ·åĨĽ": 1935,
      "å·¡": 1936,
      "çĪĨ": 1937,
      "äºĪ": 1938,
      "çĽ¸åħ³": 1939,
      "è¥¿äºļ": 1940,
      "äº§çĶŁ": 1941,
      "å»·": 1942,
      "åħ¬è·¯": 1943,
      "åįķä½į": 1944,
      "ed": 1945,
      "æĸ¹å¼ı": 1946,
      "è®²": 1947,
      "èĵĿ": 1948,
      "èģĮä¸ļ": 1949,
      "å¸ĿåĽ½": 1950,
      "å®½": 1951,
      "èį·": 1952,
      "çĶŁæ¶¯": 1953,
      "äºĭä»¶": 1954,
      "çĦ¶èĢĮ": 1955,
      "ç«¹": 1956,
      "æ··": 1957,
      "åĲĪä½ľ": 1958,
      "æ¦Ĥ": 1959,
      "2009": 1960,
      "ç»ĵæĿŁ": 1961,
      "å¹´èĩ³": 1962,
      "çĶŁçī©": 1963,
      "ç½²": 1964,
      "æĥħåĨµ": 1965,
      "è®¾æľī": 1966,
      "80": 1967,
      "ter": 1968,
      "ä¸ĵè¾ĳ": 1969,
      "èµµ": 1970,
      "ĠK": 1971,
      "åįĹéĥ¨": 1972,
      "å¯¼èĩ´": 1973,
      "ç§ĺ": 1974,
      "çĲĥåĳĺ": 1975,
      "å¤§åĪ©": 1976,
      "å¹¶åľ¨": 1977,
      "æ£Ĵ": 1978,
      "2011": 1979,
      "è´§": 1980,
      "ia": 1981,
      "2008": 1982,
      "å³°": 1983,
      "åĪ»": 1984,
      "2012": 1985,
      "å¥ı": 1986,
      "åĩı": 1987,
      "ä¸ªäºº": 1988,
      "åĿĢ": 1989,
      "æ¬¾": 1990,
      "éģĩ": 1991,
      "æ³ī": 1992,
      "31": 1993,
      "ä¾ĭå¦Ĥ": 1994,
      "åºŁ": 1995,
      ")ï¼Į": 1996,
      "çļĦæĺ¯": 1997,
      "é¥°æ¼Ķ": 1998,
      "è·Ł": 1999,
      "æ¯ķä¸ļ": 2000,
      "å¯¼æ¼Ķ": 2001,
      "å®³": 2002,
      "æ¼«": 2003,
      "æķ¦": 2004,
      "100": 2005,
      "æ®¿": 2006,
      "éĤ»": 2007,
      "ä½ł": 2008,
      "ä¼ĳ": 2009,
      "è¿Ļç§į": 2010,
      "çĮ®": 2011,
      "å¸®": 2012,
      "çĶļ": 2013,
      "2006": 2014,
      "ç§ĭ": 2015,
      "2013": 2016,
      "ä¸įè¿ĩ": 2017,
      "åģ¥": 2018,
      "çĹĩ": 2019,
      "å¿ł": 2020,
      "èĶ": 2021,
      "åıĸå¾Ĺ": 2022,
      "èĩªå·±çļĦ": 2023,
      "ad": 2024,
      "æıı": 2025,
      "æīĢä»¥": 2026,
      "ç»ıè¿ĩ": 2027,
      "äºĴ": 2028,
      "Ð°": 2029,
      "2016": 2030,
      "æĶ¯æĮģ": 2031,
      "éľį": 2032,
      "éĵ¶è¡Į": 2033,
      "th": 2034,
      "æİ§åĪ¶": 2035,
      "åĲ¸": 2036,
      "2007": 2037,
      "æľºåľº": 2038,
      "æľºæŀĦ": 2039,
      "éĩĬ": 2040,
      "æĽ¿": 2041,
      "ul": 2042,
      "ç»¿": 2043,
      "æĺ¯ä¸Ģä¸ª": 2044,
      "åıĹåĪ°": 2045,
      "2015": 2046,
      "2019": 2047,
      "éŁ¦": 2048,
      "è§ī": 2049,
      "éĻĦè¿ĳ": 2050,
      "çİ°åľ¨": 2051,
      "åĽ½çİĭ": 2052,
      "2014": 2053,
      "åĲĪå¹¶": 2054,
      "ä¸ŃåŃ¦": 2055,
      "ä¸īå¹´": 2056,
      "éĺ¿å°Ķ": 2057,
      "ä¾¯": 2058,
      "ä½©": 2059,
      "ä¼ļè®®": 2060,
      "åºĻ": 2061,
      "äººåĳĺ": 2062,
      "å«": 2063,
      "ay": 2064,
      "æī¾": 2065,
      "å¹´åº¦": 2066,
      "èĢ³": 2067,
      "æ¨ª": 2068,
      "åĿ¡": 2069,
      "çĲ´": 2070,
      "å¤§éĻĨ": 2071,
      "åħĭæĸ¯": 2072,
      "ä½ĵèĤ²": 2073,
      "æŁĵ": 2074,
      "åŃ©": 2075,
      "çĤ®": 2076,
      "éĨ": 2077,
      "æĹłæ³ķ": 2078,
      "ä¸ĢçĽ´": 2079,
      "è¾Ĩ": 2080,
      "å»ºè®¾": 2081,
      "å¾Ħ": 2082,
      "èµĽäºĭ": 2083,
      "ç«ŀ": 2084,
      "æ¢¦": 2085,
      "å¹ķ": 2086,
      "èĨ": 2087,
      "å°º": 2088,
      "å®¡": 2089,
      "ï¼ļâĢľ": 2090,
      "èµĽåŃ£": 2091,
      "æ¤įçī©": 2092,
      "èĳĹåĲį": 2093,
      "ent": 2094,
      "ç¿¼": 2095,
      "åħħ": 2096,
      "2017": 2097,
      "ç¯ĩ": 2098,
      "ç©Ĩ": 2099,
      "ç¾½": 2100,
      "å°±æĺ¯": 2101,
      "éĢĤ": 2102,
      "èªī": 2103,
      "è¿Ļä¸Ģ": 2104,
      "å¥Ī": 2105,
      "st": 2106,
      "å®¶æĹı": 2107,
      "2018": 2108,
      "åıªæľī": 2109,
      "ä¸Ģèµ·": 2110,
      "éĢĥ": 2111,
      "å¾Ĳ": 2112,
      "éĿŀå¸¸": 2113,
      "èĬ¬": 2114,
      "æŁı": 2115,
      "å¦¹": 2116,
      "éľ²": 2117,
      "70": 2118,
      "190": 2119,
      "ç»§ç»Ń": 2120,
      "éĢı": 2121,
      "ig": 2122,
      "çİ¯å¢ĥ": 2123,
      "éĢīæĭ": 2124,
      "æ¸Ĳ": 2125,
      "åĢŁ": 2126,
      "ä¼łç»Ł": 2127,
      "å¾Ĵ": 2128,
      "ä½įç½®": 2129,
      "åĮºåŁŁ": 2130,
      "ç©¿": 2131,
      "æĪ´": 2132,
      "éģĵè·¯": 2133,
      "ation": 2134,
      "åįļçī©": 2135,
      "æĿ¥çļĦ": 2136,
      "åĽº": 2137,
      "um": 2138,
      "çĽĺ": 2139,
      "å¾ĹåĪ°": 2140,
      "æ¼Ķåĩº": 2141,
      "ir": 2142,
      "çģŃ": 2143,
      "Ġt": 2144,
      "éĢłæĪĲ": 2145,
      "å·¥ä¸ļ": 2146,
      "è¦ģæ±Ĥ": 2147,
      "èĦļ": 2148,
      "æĢĢ": 2149,
      "åı¦å¤ĸ": 2150,
      "Ġ18": 2151,
      "åīĳ": 2152,
      "å¥³åŃĲ": 2153,
      "æĺ¯çĶ±": 2154,
      "æ¯«": 2155,
      "ç»ĵæŀľ": 2156,
      "é¢Ŀ": 2157,
      "ä¹ĭåīį": 2158,
      "é²ľ": 2159,
      "æĺŃ": 2160,
      "æī©": 2161,
      "èĿ": 2162,
      "ç»Ĩèĥŀ": 2163,
      "åĨ°": 2164,
      "ä»Ļ": 2165,
      "èĭıèģĶ": 2166,
      "çºªå¿µ": 2167,
      "å¤Ł": 2168,
      "æĥł": 2169,
      "éĻµ": 2170,
      "åĳĪ": 2171,
      "å¹´éĹ´": 2172,
      "è¿ĩç¨ĭ": 2173,
      "è¥¿çıŃ": 2174,
      "æı´": 2175,
      "ãĢįï¼Ī": 2176,
      "è¥¿çıŃçīĻ": 2177,
      "ĠJ": 2178,
      "æ£ĭ": 2179,
      "2000": 2180,
      "æŁĲ": 2181,
      "å¢ŀåĬł": 2182,
      "è¾Ľ": 2183,
      "Ġ198": 2184,
      "åĪļ": 2185,
      "ãĢĤâĢĿ": 2186,
      "æ¦ľ": 2187,
      "æ¿Ģ": 2188,
      "ç½ª": 2189,
      "2005": 2190,
      "ä¹±": 2191,
      "ä¸ľäº¬": 2192,
      "åįģä¸Ģ": 2193,
      "åĶ¯": 2194,
      "id": 2195,
      "è¿Ķ": 2196,
      "éĴ±": 2197,
      "åĦ¿åŃĲ": 2198,
      "çĽĬ": 2199,
      "åªĴ": 2200,
      "ä¸»å¸Ń": 2201,
      "æ±ł": 2202,
      "åĮ»éĻ¢": 2203,
      "æĸ°éĹ»": 2204,
      "èĩªçĶ±": 2205,
      "ãĢİ": 2206,
      "ãĢı": 2207,
      "ç§ģ": 2208,
      "2020": 2209,
      "éĿł": 2210,
      "æ´ª": 2211,
      "å®¶åºŃ": 2212,
      "ä»¥ä¸ĭ": 2213,
      "æŃ¤å¤ĸ": 2214,
      "é«ĺéĢŁ": 2215,
      "äºİæĺ¯": 2216,
      "éĽ¨": 2217,
      "éĴ¢": 2218,
      "åı¦ä¸Ģ": 2219,
      "èĮ¨": 2220,
      "æķĻæİĪ": 2221,
      "å°¤": 2222,
      "è¶ħè¿ĩ": 2223,
      "è¢Ń": 2224,
      "å¯¹äºİ": 2225,
      "im": 2226,
      "æµĻ": 2227,
      "äº®": 2228,
      "å¢ĵ": 2229,
      "çº¦ç¿°": 2230,
      "ç¼º": 2231,
      "ç¼ĺ": 2232,
      "èĥ½åĬĽ": 2233,
      "å¦Ĥæŀľ": 2234,
      "ï½": 2235,
      "35": 2236,
      "å¥ī": 2237,
      "æģ¶": 2238,
      "éĥ¨éĺŁ": 2239,
      "éķľ": 2240,
      "èµŀ": 2241,
      "æĪĺæĸĹ": 2242,
      "æ´ŀ": 2243,
      "èĻİ": 2244,
      "è¡£": 2245,
      "åĩºçļĦ": 2246,
      "çİ°ä»£": 2247,
      "æĢ»ç»Ł": 2248,
      "ot": 2249,
      "åĪĨä¸º": 2250,
      "37": 2251,
      "¤Ĳ": 2252,
      "åįļçī©é¦Ĩ": 2253,
      "åİ»ä¸ĸ": 2254,
      "ä¾į": 2255,
      "48": 2256,
      "åĲįç§°": 2257,
      "çļĨ": 2258,
      "èĪį": 2259,
      "æĶ¹ä¸º": 2260,
      "èĦ±": 2261,
      "èĤī": 2262,
      "åĽĽå¹´": 2263,
      "æĮĩæĮ¥": 2264,
      "éĩįæĸ°": 2265,
      "èıĮ": 2266,
      "æ»¨": 2267,
      "çºªå½ķ": 2268,
      "é¢ģ": 2269,
      "æĪĲç»©": 2270,
      "éľĩ": 2271,
      "ä¹İ": 2272,
      "çĶµè§Ĩåı°": 2273,
      "è®¨": 2274,
      "æļ´": 2275,
      "ag": 2276,
      "Ð¾": 2277,
      "åľ°æĸ¹": 2278,
      "ä»»ä½ķ": 2279,
      "ä¸ľåĮĹ": 2280,
      "å§ĵ": 2281,
      "æİ¥åıĹ": 2282,
      "ç¬¬åĽĽ": 2283,
      "90": 2284,
      "çĶµè§Ĩåī§": 2285,
      "åŃĶ": 2286,
      "èĮĥåĽ´": 2287,
      "åĿĹ": 2288,
      "èµı": 2289,
      "é¡¾": 2290,
      "åĨĽéĺŁ": 2291,
      "åĩ»è´¥": 2292,
      "ä¹Ļ": 2293,
      "åıįåºĶ": 2294,
      "ä¿±ä¹Ĳ": 2295,
      "çĽ´åĪ°": 2296,
      "åĲ¬": 2297,
      "èĤ¯": 2298,
      "ä¸ľåįĹ": 2299,
      "åĪĽä½ľ": 2300,
      "ä¿±ä¹Ĳéĥ¨": 2301,
      "èĽĭ": 2302,
      "45": 2303,
      "æµ¦": 2304,
      "èĩªçĦ¶": 2305,
      "èħĬ": 2306,
      "æ¡ĳ": 2307,
      "ç§¦": 2308,
      "ãĤ¹": 2309,
      "é½¿": 2310,
      "åĨ·": 2311,
      "ç»¼": 2312,
      "ä¸»é¢ĺ": 2313,
      "ç»į": 2314,
      "éĢīæĭ©": 2315,
      "çıł": 2316,
      "åĨħçļĦ": 2317,
      "åĨħå®¹": 2318,
      "å¾ħ": 2319,
      "éĻ¤äºĨ": 2320,
      "è¿¹": 2321,
      "op": 2322,
      "åĪĬ": 2323,
      "åĨĽäºĭ": 2324,
      "æĭįæĳĦ": 2325,
      "è¡¨çİ°": 2326,
      "æĪĪ": 2327,
      "2004": 2328,
      "çŁ¿": 2329,
      "ç¿»": 2330,
      "ç¦ģ": 2331,
      "å°Ķæĸ¯": 2332,
      "åĬª": 2333,
      "éļıåĲİ": 2334,
      "æįķ": 2335,
      "47": 2336,
      "æ±ĩ": 2337,
      "çº¿è·¯": 2338,
      "è¯¾": 2339,
      "æ¯ģ": 2340,
      "è¿Ľå£«": 2341,
      "è°ĭ": 2342,
      "åįıä¼ļ": 2343,
      "äººç±»": 2344,
      "æĢ¥": 2345,
      "âĢ¦": 2346,
      "èİİ": 2347,
      "èŀį": 2348,
      "æłĩåĩĨ": 2349,
      "å»ī": 2350,
      "å°ıæĹ¶": 2351,
      "çīĪæľ¬": 2352,
      "åĪ©çĶ¨": 2353,
      "çĶĺ": 2354,
      "æĦıå¤§åĪ©": 2355,
      "è¯Ńè¨Ģ": 2356,
      "46": 2357,
      "çĳŁ": 2358,
      "æĹ¥åľ¨": 2359,
      "iv": 2360,
      "æ¯įäº²": 2361,
      "ĠO": 2362,
      "åĳ³": 2363,
      "äººæ°ĳåħ±åĴĮåĽ½": 2364,
      "èķ": 2365,
      "æĵį": 2366,
      "å¯»": 2367,
      "ä¼ģä¸ļ": 2368,
      "ï½ŀ": 2369,
      "éĢĿ": 2370,
      "éĢīä¸¾": 2371,
      "äºļæ´²": 2372,
      "çĴ": 2373,
      "è¿ĲåĬ¨åĳĺ": 2374,
      "èĻ«": 2375,
      "åŁ¹": 2376,
      "ä¸»æĮģ": 2377,
      "è®¿": 2378,
      "å¢¨": 2379,
      "å¯¿": 2380,
      "ä½ľçĶ¨": 2381,
      "æĭĽ": 2382,
      "å½©": 2383,
      "æĢ§çļĦ": 2384,
      "èĳ¡": 2385,
      "æĺ¯ä¸Ģç§į": 2386,
      "æ½ľ": 2387,
      "è¸": 2388,
      "å¹¶ä¸į": 2389,
      "éº»": 2390,
      "çĶ³": 2391,
      "æĽ¹": 2392,
      "å¥¹çļĦ": 2393,
      "å¹¸": 2394,
      "æĸĩåŃ¦": 2395,
      "åĪ¶éĢł": 2396,
      "éĥ½æĺ¯": 2397,
      "è¿İ": 2398,
      "çĶµåŃĲ": 2399,
      "æ±½": 2400,
      "èµ¢": 2401,
      "åĨįæ¬¡": 2402,
      "å®ĥä»¬": 2403,
      "åĨ¬": 2404,
      "ä¸īåįģ": 2405,
      "æĸ¹æ³ķ": 2406,
      "åĩ¤": 2407,
      "åĿļ": 2408,
      "æĹĭ": 2409,
      "èģĶéĤ¦": 2410,
      "é»ĺ": 2411,
      "éĿĻ": 2412,
      "æĶ»åĩ»": 2413,
      "é³į": 2414,
      "æĭīæĸ¯": 2415,
      "æ¸¡": 2416,
      "ç»ľ": 2417,
      "æģĴ": 2418,
      "2021": 2419,
      "é¬": 2420,
      "ä¾µ": 2421,
      "æļĹ": 2422,
      "ĠV": 2423,
      "åĮ¹": 2424,
      "æģĲ": 2425,
      "åīĤ": 2426,
      "æµĻæ±Ł": 2427,
      "åįļå£«": 2428,
      "ä¹Łæľī": 2429,
      "éħįéŁ³": 2430,
      "ä¸»è§Ĵ": 2431,
      "èĳ£": 2432,
      "å®Įåħ¨": 2433,
      "æ¶²": 2434,
      "ou": 2435,
      "åħ±åĲĮ": 2436,
      "è´¡": 2437,
      "æľīåħ³": 2438,
      "æ®ĸ": 2439,
      "è¥¿åįĹ": 2440,
      "åĲİçļĦ": 2441,
      "çļĦæĹ¶": 2442,
      "å¹´åľ¨": 2443,
      "åį±": 2444,
      "å¹¿ä¸ľ": 2445,
      "å®ŀéªĮ": 2446,
      "å®ľ": 2447,
      "è¿·": 2448,
      "å´ĩ": 2449,
      "Ġ3": 2450,
      "è¾ħ": 2451,
      "è®¾ç«ĭ": 2452,
      "Ð¸": 2453,
      "æĴ¤": 2454,
      "éĶ¦æłĩ": 2455,
      "å¸ģ": 2456,
      "æįŁ": 2457,
      "å¤ªå¹³": 2458,
      "58": 2459,
      "èĦī": 2460,
      "æĽ¾ç»ı": 2461,
      "em": 2462,
      "éļĶ": 2463,
      "å®īåħ¨": 2464,
      "çĤ¸": 2465,
      "æĸ°çļĦ": 2466,
      "çī§": 2467,
      "ow": 2468,
      "åħĥå¹´": 2469,
      "æŁ±": 2470,
      "åĪĳ": 2471,
      "ec": 2472,
      "ï¼ļãĢĮ": 2473,
      "æľĢåĪĿ": 2474,
      "éĺ´": 2475,
      "çİ©å®¶": 2476,
      "ä¸Ńåįİäººæ°ĳåħ±åĴĮåĽ½": 2477,
      "æĬµ": 2478,
      "ä¹Ī": 2479,
      "çĽ´æİ¥": 2480,
      "ä¸ĭçļĦ": 2481,
      "ä¸¾åĬŀ": 2482,
      "æĤ£": 2483,
      "æī¬": 2484,
      "å¹¿æĴŃ": 2485,
      "æĦ¿": 2486,
      "åĬłæĭ¿": 2487,
      "è¿ĺæľī": 2488,
      "å§Ĳ": 2489,
      "å½¼": 2490,
      "çī©ç§į": 2491,
      "ç¦»å¼Ģ": 2492,
      "ç±»ä¼¼": 2493,
      "ãģĦ": 2494,
      "å´İ": 2495,
      "çī¹å¾ģ": 2496,
      "ï¼Ł": 2497,
      "2003": 2498,
      "äº¨": 2499,
      "æ¥ļ": 2500,
      "ä»»åĬ¡": 2501,
      "Ġd": 2502,
      "å½¢å¼ı": 2503,
      "æ°§": 2504,
      "ä¼į": 2505,
      "éŁ©åĽ½": 2506,
      "å¹¼": 2507,
      "åĵ²": 2508,
      "æīİ": 2509,
      "æıĲåĩº": 2510,
      "å±±ä¸ľ": 2511,
      "æ¯«ç±³": 2512,
      "éĩĮæĸ¯": 2513,
      "åı¬": 2514,
      "åĬ¨çĶ»": 2515,
      "å¸Ĥåľº": 2516,
      "ï¼ĮãĢĬ": 2517,
      "èĭ±æł¼åħ°": 2518,
      "è¿Ļæĺ¯": 2519,
      "ãĥ«": 2520,
      "åŃ¦ä¹ł": 2521,
      "å¤§éĩı": 2522,
      "åĮħåĲ«": 2523,
      "çļĦå¥³": 2524,
      "à¸": 2525,
      "ä¹°": 2526,
      "åĮºçļĦ": 2527,
      "åĳ¼": 2528,
      "è¾½": 2529,
      "çĬ¯": 2530,
      "Ġè¯¥": 2531,
      "æĹ©æľŁ": 2532,
      "è®¾ç½®": 2533,
      "éĿĴå¹´": 2534,
      "å¾½": 2535,
      "çĶļèĩ³": 2536,
      "ä¸Ģæ¬¡": 2537,
      "ç¾İåħĥ": 2538,
      "æ»ĳ": 2539,
      "åĭĩ": 2540,
      "è¥¿åĮĹ": 2541,
      "æķ°éĩı": 2542,
      "è°Ī": 2543,
      "çīł": 2544,
      "åĳ½åĲį": 2545,
      "ä¸ĵä¸ļ": 2546,
      "é¢Ĩå¯¼": 2547,
      "ç»ĺ": 2548,
      "å·ŀå¸Ĥ": 2549,
      "éĵľ": 2550,
      "ä¸īä¸ª": 2551,
      "æ±¤": 2552,
      "å¹¶äºİ": 2553,
      "ĠSt": 2554,
      "è¡ĮåĬ¨": 2555,
      "è´º": 2556,
      "æĸ¯åĿ¦": 2557,
      "åı«": 2558,
      "äºĶå¹´": 2559,
      "æ¨¡å¼ı": 2560,
      "å¼ĥ": 2561,
      "ç¡Ģ": 2562,
      "ãĤ¤": 2563,
      "ä¸įèĥ½": 2564,
      "èıľ": 2565,
      "ä¼Ł": 2566,
      "Ġæĸ°": 2567,
      "è±ª": 2568,
      "ç¼©": 2569,
      "åħ±æľī": 2570,
      "åįĪ": 2571,
      "ï¼ı": 2572,
      "æĴŃåĩº": 2573,
      "ç¬¦": 2574,
      "ie": 2575,
      "od": 2576,
      "æķĻåłĤ": 2577,
      "å¹»": 2578,
      "å¦®": 2579,
      "ĠÐ": 2580,
      "éģ¿": 2581,
      "è½¯": 2582,
      "è®¢": 2583,
      "ï¼ģ": 2584,
      "è½¨éģĵ": 2585,
      "æĪª": 2586,
      "åĮĸåŃ¦": 2587,
      "éļ¶å±ŀäºİ": 2588,
      "åŁºç¡Ģ": 2589,
      "é¢ľ": 2590,
      "ĠæĿİ": 2591,
      "åĲķ": 2592,
      "ä¸Ģç§į": 2593,
      "æ½®": 2594,
      "å¹³åĿĩ": 2595,
      "æĬķèµĦ": 2596,
      "éĶ¡": 2597,
      "åĨĮ": 2598,
      "çº½çº¦": 2599,
      "å¿ħé¡»": 2600,
      "æŃ»äº¡": 2601,
      "åľ°ä¸ĭ": 2602,
      "è¿ŀç»Ń": 2603,
      "æŀļ": 2604,
      "é£ŀæľº": 2605,
      "æ²³åįĹ": 2606,
      "è¯¯": 2607,
      "æŃĮæīĭ": 2608,
      "èĦĳ": 2609,
      "oc": 2610,
      "æķı": 2611,
      "éĥŃ": 2612,
      "å¢Ļ": 2613,
      "çĽ¸å½ĵ": 2614,
      "75": 2615,
      "éĴĪ": 2616,
      "åĪĨç±»": 2617,
      "èĲĦ": 2618,
      "æģĭ": 2619,
      "æµª": 2620,
      "æĸĩçī©": 2621,
      "è°ĥæŁ¥": 2622,
      "èĳ¡èĲĦ": 2623,
      "æ¡ĥ": 2624,
      "åĲ¦": 2625,
      "å¹¿åľº": 2626,
      "åĬłæĭ¿å¤§": 2627,
      "çĶ·åŃĲ": 2628,
      "æŁ´": 2629,
      "Ġ1": 2630,
      "çĽĲ": 2631,
      "ãĢī": 2632,
      "å¥Ĺ": 2633,
      "åķĨä¸ļ": 2634,
      "äºĮå¹´": 2635,
      "Ġé¥°æ¼Ķ": 2636,
      "åĶ¯ä¸Ģ": 2637,
      "åľĪ": 2638,
      "ä½ľæĽ²": 2639,
      "åĭĭ": 2640,
      "åŃĿ": 2641,
      "é¬¼": 2642,
      "åĿı": 2643,
      "åħ¶åĲİ": 2644,
      "ãĢĪ": 2645,
      "è¢«ç§°ä¸º": 2646,
      "å¸ĮèħĬ": 2647,
      "è®°è½½": 2648,
      "ç¹": 2649,
      "è¯ī": 2650,
      "é£ŀè¡Į": 2651,
      "ard": 2652,
      "éĻ¶": 2653,
      "éĽķ": 2654,
      "çĸĳ": 2655,
      "åĽĽå·Ŀ": 2656,
      "éĤ®": 2657,
      "å¦ĩ": 2658,
      "55": 2659,
      "åįĸ": 2660,
      "è¥¿éĥ¨": 2661,
      "av": 2662,
      "å¸®åĬ©": 2663,
      "ä¹ĭéĹ´çļĦ": 2664,
      "ç³ĸ": 2665,
      "33": 2666,
      "éĺ»": 2667,
      "ç¬¬ä¸Ģæ¬¡": 2668,
      "ut": 2669,
      "å¤ļæķ°": 2670,
      "æĹ¶çļĦ": 2671,
      "æŀĲ": 2672,
      "è·Ŀç¦»": 2673,
      "é©¬æĿ¥": 2674,
      "åħ³äºİ": 2675,
      "åľ°çĲĨ": 2676,
      "èĲ§": 2677,
      "ä¸Ģæł·": 2678,
      "æ³Ľ": 2679,
      "ä¸¤äºº": 2680,
      "åįĹäº¬": 2681,
      "ä»ĺ": 2682,
      "æ©": 2683,
      "æĺ¾ç¤º": 2684,
      "åĪĨéĴŁ": 2685,
      "åħĦå¼Ł": 2686,
      "ill": 2687,
      "åħ¬å¼Ģ": 2688,
      "æĸ¹åĲĳ": 2689,
      "èĥ½å¤Ł": 2690,
      "æİĮ": 2691,
      "æļĤ": 2692,
      "ä¼Ĳ": 2693,
      "ä»ĵ": 2694,
      "æ²ī": 2695,
      "éĻ·": 2696,
      "è¿ŀæİ¥": 2697,
      "åıĳå¸ĥ": 2698,
      "å±ħæ°ĳ": 2699,
      "å°Ĭ": 2700,
      "å®ª": 2701,
      "çĲĨè®º": 2702,
      "2002": 2703,
      "æĪĺå½¹": 2704,
      "è£Ĥ": 2705,
      "æī§è¡Į": 2706,
      "Ġ2": 2707,
      "åįķæĽ²": 2708,
      "åī§æĥħ": 2709,
      "åħ½": 2710,
      "ä¹ĥ": 2711,
      "ap": 2712,
      "è¿«": 2713,
      "è®¾æĸ½": 2714,
      "ç´§": 2715,
      "ä»Ķ": 2716,
      "æĢª": 2717,
      "åĲįåŃĹ": 2718,
      "åŁºçĿ£": 2719,
      "é£İæł¼": 2720,
      "æĪĳä»¬": 2721,
      "æııè¿°": 2722,
      "36": 2723,
      "äº«": 2724,
      "è®Ńç»ĥ": 2725,
      "ä¸»ä»»": 2726,
      "ä¸Ģä¸ĸ": 2727,
      "å®ŀéĻħ": 2728,
      "æĮ¯": 2729,
      "ä¿Ĺ": 2730,
      "è´¤": 2731,
      "ä¸ºP": 2732,
      "æ²Ī": 2733,
      "ï¼ļãĢĬ": 2734,
      "Ðµ": 2735,
      "2001": 2736,
      "äºĮä¸ĸ": 2737,
      "åĿĲ": 2738,
      "è£ģ": 2739,
      "éĥ¨éķ¿": 2740,
      "éĹŃ": 2741,
      "æ¼«çĶ»": 2742,
      "è§ĦåĪĴ": 2743,
      "è®¯": 2744,
      "è·¨": 2745,
      "è®®ä¼ļ": 2746,
      "å»ºéĢł": 2747,
      "åĬŁèĥ½": 2748,
      "2022": 2749,
      "æķ°æį®": 2750,
      "éĺģ": 2751,
      "äºĭåĬ¡": 2752,
      "38": 2753,
      "æĭĶ": 2754,
      "æĺĤ": 2755,
      "ç¹ģ": 2756,
      "åĲĦç§į": 2757,
      "è¶ħçº§": 2758,
      "å¸ĮæľĽ": 2759,
      "è¡Įä¸º": 2760,
      "èµ¢å¾Ĺ": 2761,
      "é©±": 2762,
      "78": 2763,
      "ers": 2764,
      "åĢĴ": 2765,
      "å®¿": 2766,
      "åģı": 2767,
      "ä¸ĺ": 2768,
      "åľ°éĵģ": 2769,
      "å¤ªéĺ³": 2770,
      "éĢīæīĭ": 2771,
      "äº§åĵģ": 2772,
      "èĢĮä¸Ķ": 2773,
      "æ¼ĶåĶ±": 2774,
      "çĩķ": 2775,
      "ov": 2776,
      "åıĳè¡¨": 2777,
      "ç©ºéĹ´": 2778,
      "ell": 2779,
      "æŁ¯": 2780,
      "å¤©æ´¥": 2781,
      "ç¥Ń": 2782,
      "èµ¤": 2783,
      "æĻ¶": 2784,
      "è§¦": 2785,
      "ä¸įæĺ¯": 2786,
      "åħ¨çĲĥ": 2787,
      "åİŁåĽł": 2788,
      "ä¸»æ¼Ķ": 2789,
      "èµĸ": 2790,
      "çĸ¾": 2791,
      "ä»¥æĿ¥": 2792,
      "ç´«": 2793,
      "å¤§æĪĺ": 2794,
      "èĩªæ²»": 2795,
      "çģ°": 2796,
      "Ð½": 2797,
      "ç¬Ķ": 2798,
      "Ġä¸Ń": 2799,
      "åŃ¦åĲį": 2800,
      "ä¸įä¹ħ": 2801,
      "éĿĸ": 2802,
      "çĽ¸åĲĮ": 2803,
      "æĺĨ": 2804,
      "èļ": 2805,
      "çĲĥä¼ļ": 2806,
      "39": 2807,
      "æ°ĳæĹı": 2808,
      "å£¤": 2809,
      "æĺİæľĿ": 2810,
      "ä¼¦æķ¦": 2811,
      "éĢĬ": 2812,
      "Ġéĺ¿": 2813,
      "è´Ŀå°Ķ": 2814,
      "æķ¬": 2815,
      "è·ĳ": 2816,
      "åªĴä½ĵ": 2817,
      "ä¼´": 2818,
      "æķĻç»ĥ": 2819,
      "åŁºæľ¬": 2820,
      "èĴĻåı¤": 2821,
      "å®ļçļĦ": 2822,
      "åĿĳ": 2823,
      "çıį": 2824,
      "æİĴåĲį": 2825,
      "é¢Ĺ": 2826,
      "é¹¿": 2827,
      "189": 2828,
      "çº¯": 2829,
      "ä¿Ĭ": 2830,
      "ä¸įåĲĮçļĦ": 2831,
      "æ²»çĸĹ": 2832,
      "Ġ4": 2833,
      "ä»įçĦ¶": 2834,
      "çĨĻ": 2835,
      "æľĪåı°": 2836,
      "ä¸ľéĥ¨": 2837,
      "è´¸": 2838,
      "Ġs": 2839,
      "éĵģéģĵ": 2840,
      "ak": 2841,
      "The": 2842,
      "ç»¼åĲĪ": 2843,
      "çļĩå¸Ŀ": 2844,
      "æĶ¹ç¼ĸ": 2845,
      "èĳ¬": 2846,
      "è°±": 2847,
      "åľ¨æŃ¤": 2848,
      "è§Ī": 2849,
      "èĳĽ": 2850,
      "æŁ³": 2851,
      "éļľ": 2852,
      "ç»Łæ²»": 2853,
      "ä¸ŃåĽ½å¤§éĻĨ": 2854,
      "è¿Ī": 2855,
      "è®¡ç®Ĺ": 2856,
      "ä»ĸä»¬çļĦ": 2857,
      "åŃŁ": 2858,
      "åħŃå¹´": 2859,
      "è´¾": 2860,
      "æľĭ": 2861,
      "ä¸ĢåĲį": 2862,
      "çº¹": 2863,
      "ç²ī": 2864,
      "èİ²": 2865,
      "èį£èªī": 2866,
      "Ġé«ĺ": 2867,
      "åħ¨éĥ¨": 2868,
      "Ġ:": 2869,
      "çĸ«": 2870,
      "ä¸ºä¸»": 2871,
      "å£ģ": 2872,
      "32": 2873,
      "æĸ¯ç§ĳ": 2874,
      "åľ°çĲĥ": 2875,
      "ç§Ł": 2876,
      "Ġm": 2877,
      "æłĸ": 2878,
      "å¤ĦçĲĨ": 2879,
      "çĬ¹": 2880,
      "ç»§æī¿": 2881,
      "ab": 2882,
      "æĹģ": 2883,
      "è¾¾åĪ°": 2884,
      "34": 2885,
      "å°½ç®¡": 2886,
      "éĶĭ": 2887,
      "éĺ¶æ®µ": 2888,
      "ÑĢ": 2889,
      "æį·": 2890,
      "å¹´åĲİ": 2891,
      "Ñģ": 2892,
      "åģ¶": 2893,
      "è¾ŀ": 2894,
      "è¡Ĺéģĵ": 2895,
      "ä¸Ĭæĺł": 2896,
      "çĮİ": 2897,
      "å¾Īå¤ļ": 2898,
      "ä½ľå®¶": 2899,
      "åıĪç§°": 2900,
      "æľĢæĹ©": 2901,
      "èĭ±è¯Ń": 2902,
      "çļĦç¬¬": 2903,
      "èĽĩ": 2904,
      "éĶĻ": 2905,
      "åĩºçĶŁäºİ": 2906,
      "ãģĹ": 2907,
      "éĢŁåº¦": 2908,
      "é¤Ĳ": 2909,
      "çĲ³": 2910,
      "å»ºäºİ": 2911,
      "Ġçİĭ": 2912,
      "ç¡¬": 2913,
      "æģ¢": 2914,
      "æ®Ĭ": 2915,
      "çĥ§": 2916,
      "ist": 2917,
      "åıĺåĮĸ": 2918,
      "ç¦ıå»º": 2919,
      "ãĢĤãĢį": 2920,
      "ä½Ĩåľ¨": 2921,
      "è£Ķ": 2922,
      "å¦»åŃĲ": 2923,
      "ãĥĪ": 2924,
      "åĽ°": 2925,
      "è·³": 2926,
      "èīĩ": 2927,
      "çĤİ": 2928,
      "ä¿¡æģ¯": 2929,
      "65": 2930,
      "ä¼¸": 2931,
      "ine": 2932,
      "æ®ĭ": 2933,
      "è¯Ħä»·": 2934,
      "é¼ĵ": 2935,
      "Ġde": 2936,
      "åĪĢ": 2937,
      "åħĭåħ°": 2938,
      "âĢĿï¼Ī": 2939,
      "åŀĴ": 2940,
      "éļĲ": 2941,
      "å±ŀçļĦ": 2942,
      "ç®Ģç§°": 2943,
      "åİļ": 2944,
      "å·´é»İ": 2945,
      "çĦ¶åĲİ": 2946,
      "æħķ": 2947,
      "çĮª": 2948,
      "ç¤¾åĮº": 2949,
      "çģ¯": 2950,
      "æİ¨åĩº": 2951,
      "åŃ¦ä½į": 2952,
      "ç»ıèĲ¥": 2953,
      "St": 2954,
      "ãĥ©": 2955,
      "å¤©ä¸»æķĻ": 2956,
      "å¨ģå»ī": 2957,
      "ĠCh": 2958,
      "æ¢°": 2959,
      "è¿ĲèĲ¥": 2960,
      "Ġc": 2961,
      "çİĭåĽ½": 2962,
      "ä¹³": 2963,
      "ç¨³": 2964,
      "å¢ĥåĨħ": 2965,
      "åħ¬åħ±": 2966,
      "Ġä¸İ": 2967,
      "åħ¬å°º": 2968,
      "å¼ĢæĶ¾": 2969,
      "ç»ıå¸¸": 2970,
      "ä½¿å¾Ĺ": 2971,
      "èµł": 2972,
      "å°ĳå¹´": 2973,
      "å¼ĺ": 2974,
      "Ã©": 2975,
      "çĩĥ": 2976,
      "è¾ī": 2977,
      "èµĦæĸĻ": 2978,
      "æ°ĳä¸»": 2979,
      "çļĩå®¶": 2980,
      "ce": 2981,
      "éĢĿä¸ĸ": 2982,
      "æ¾³éĹ¨": 2983,
      "åĽŀåĪ°": 2984,
      "Ġå°ı": 2985,
      "è½¦è¾Ĩ": 2986,
      "å°Ķå¾·": 2987,
      "çļĦæĸ°": 2988,
      "çŃīäºº": 2989,
      "å®ĺæĸ¹": 2990,
      "çļĦå°ı": 2991,
      "æ¯Ķäºļ": 2992,
      "ä¸ļåĬ¡": 2993,
      "åĩ¡": 2994,
      "é¾Ħ": 2995,
      "ç´¯": 2996,
      "çī©çĲĨ": 2997,
      "åĽ½æ°ĳ": 2998,
      "éĶ¦æłĩèµĽ": 2999,
      "çº¸": 3000,
      "åĬŀåħ¬": 3001,
      "èĥĮæĻ¯": 3002,
      "Ch": 3003,
      "ç¾İæ´²": 3004,
      "éĥ¨éĹ¨": 3005,
      "çĨĬ": 3006,
      "åıĳåĬ¨": 3007,
      "åĹ": 3008,
      "é¢ĳéģĵ": 3009,
      "åĽ¾ä¹¦": 3010,
      "çķª": 3011,
      "ä¼ı": 3012,
      "ãĢįãĢģ": 3013,
      "è¡ĮæĶ¿åĮº": 3014,
      "çºµ": 3015,
      "æľĢå¤§": 3016,
      "æģ¢å¤į": 3017,
      "çĽ®æłĩ": 3018,
      "49": 3019,
      "ä¸¥éĩį": 3020,
      "å°Ĩåħ¶": 3021,
      "åĲĥ": 3022,
      "è¡¨æ¼Ķ": 3023,
      "æ³ķéĻ¢": 3024,
      "ç¾¤å²Ľ": 3025,
      "æķ´ä¸ª": 3026,
      "ĠU": 3027,
      "æ²Ł": 3028,
      "éĤĢ": 3029,
      "æĿī": 3030,
      "og": 3031,
      "ç§ĳæĬĢ": 3032,
      "å®ħ": 3033,
      "æ¶ī": 3034,
      "Ġ2016": 3035,
      "è½´": 3036,
      "åŃ¦èĢħ": 3037,
      "å¥´": 3038,
      "å¡ŀå°Ķ": 3039,
      "æĮĳ": 3040,
      "1998": 3041,
      "åĪĨæŀĲ": 3042,
      "æľĢå¤§çļĦ": 3043,
      "æĬĺ": 3044,
      "ä»»åĳ½": 3045,
      "æµģè¡Į": 3046,
      "II": 3047,
      "è¿Ĳè¡Į": 3048,
      "01": 3049,
      "è¦": 3050,
      "Ġ2017": 3051,
      "åŁĶ": 3052,
      "1999": 3053,
      "æ¡£": 3054,
      "åİ¦": 3055,
      "æĴĴ": 3056,
      "ç¢ĳ": 3057,
      "TC": 3058,
      "ä¼°": 3059,
      "èī²çļĦ": 3060,
      "å°ĸ": 3061,
      "æĪĸèĢħ": 3062,
      "èº«ä»½": 3063,
      "åĪĹè¡¨": 3064,
      "76": 3065,
      "åŁºåľ°": 3066,
      "Ġ2010": 3067,
      "çŃīåľ°": 3068,
      "è§Ħæ¨¡": 3069,
      "Ġ2018": 3070,
      "å¥¥æĸ¯": 3071,
      "ç®Ń": 3072,
      "æĬļ": 3073,
      "æĿĤå¿Ĺ": 3074,
      "çĲĥåľº": 3075,
      "éĺ¿æĭī": 3076,
      "ç¬¬äºĮæ¬¡": 3077,
      "å¹´èµ·": 3078,
      "åħ¬ä¸»": 3079,
      "Ġ2015": 3080,
      "è®®åĳĺ": 3081,
      "å¹¿å·ŀ": 3082,
      "ph": 3083,
      "åĪĻæĺ¯": 3084,
      "çļĦä¸»è¦ģ": 3085,
      "æĭĨ": 3086,
      "è¿Ļæł·": 3087,
      "è¿Ĳè¾ĵ": 3088,
      "çİĦ": 3089,
      "çłĶç©¶æīĢ": 3090,
      "ĠãĢĮ": 3091,
      "å·¦åı³": 3092,
      "44": 3093,
      "å²Ń": 3094,
      "ç¬¬äºĶ": 3095,
      "ä¸Ńæĸĩ": 3096,
      "å¾·éĩĮ": 3097,
      "èį·åħ°": 3098,
      "æĶ¹åĪ¶": 3099,
      "åŃĲçļĦ": 3100,
      "è¡¡": 3101,
      "çĮ«": 3102,
      "ç»ıåİĨ": 3103,
      "Ġ2013": 3104,
      "éĢĲæ¸Ĳ": 3105,
      "å¤§éĥ¨åĪĨ": 3106,
      "æ½ĺ": 3107,
      "èĢħçļĦ": 3108,
      "éŀ": 3109,
      "èĽĭçĻ½": 3110,
      "è¡Ķ": 3111,
      "56": 3112,
      "å¥ĸé¡¹": 3113,
      "çŃĶ": 3114,
      "çĶŁäºİ": 3115,
      "çļĦé«ĺ": 3116,
      "åĨ¯": 3117,
      "æ±Ĺ": 3118,
      "è¯Ħè®º": 3119,
      "è®°å½ķ": 3120,
      "åħģ": 3121,
      "ç½ĳç»ľ": 3122,
      "ãĥª": 3123,
      "æľĿé²ľ": 3124,
      "éķ¿çļĦ": 3125,
      "åıĻ": 3126,
      "1990": 3127,
      "ç¦Ħ": 3128,
      "all": 3129,
      "åĽ¢ä½ĵ": 3130,
      "èħ¹": 3131,
      "èĮ¶": 3132,
      "82": 3133,
      "äº¤æĺĵ": 3134,
      "åĶ±çīĩ": 3135,
      "ç»ª": 3136,
      "è®¾å¤ĩ": 3137,
      "åĪĨå¸ĥäºİ": 3138,
      "æĮģç»Ń": 3139,
      "è¢«è®¤ä¸º": 3140,
      "æ³ķå¾ĭ": 3141,
      "éĺŁçļĦ": 3142,
      "æķĪåĬĽ": 3143,
      "æħ¢": 3144,
      "éĽ¶": 3145,
      "åľŁåľ°": 3146,
      "åıĽ": 3147,
      "æĭĴ": 3148,
      "Ġ2014": 3149,
      "æĺİæ²»": 3150,
      "ç¼ĸçłģ": 3151,
      "éĿ©åĳ½": 3152,
      "åĦ¿ç«¥": 3153,
      "Ġ2019": 3154,
      "å¼±": 3155,
      "ãĤ¯": 3156,
      "æħĪ": 3157,
      "å±ħä½ı": 3158,
      "æķĻä¼ļ": 3159,
      "åĿĽ": 3160,
      "æ¯Ķè¾ĥ": 3161,
      "ant": 3162,
      "è´¯": 3163,
      "ãĤ¢": 3164,
      "æ¡Ĥ": 3165,
      "åįıåĬ©": 3166,
      "æĶ¿æ²»äººçī©": 3167,
      "Ġthe": 3168,
      "åľ³": 3169,
      "èĻļ": 3170,
      "Ġ2012": 3171,
      "æ±½è½¦": 3172,
      "åıįå¯¹": 3173,
      "Ġä¸ŃåĽ½": 3174,
      "çĭ±": 3175,
      "ç»ĵå©ļ": 3176,
      "èº«ä½ĵ": 3177,
      "art": 3178,
      "å¤ļçļĦ": 3179,
      "åı°åĮĹ": 3180,
      "å°ī": 3181,
      "é¥®": 3182,
      "å½±çīĩ": 3183,
      "èİ·å¾ĹäºĨ": 3184,
      "åħĪåĲİ": 3185,
      "éĥ¨ä»½": 3186,
      "è¿ĩåİ»": 3187,
      "çģ¾": 3188,
      "ç¯®": 3189,
      "çĺ": 3190,
      "éĻķ": 3191,
      "ãĥĥ": 3192,
      "Ġf": 3193,
      "é©¬æĿ¥è¥¿äºļ": 3194,
      "å¥³æĢ§": 3195,
      "åį¡å°Ķ": 3196,
      "ï¼ĮâĢľ": 3197,
      "èĭĹ": 3198,
      "ä»¥ä¸Ĭ": 3199,
      "è´ŀ": 3200,
      "ang": 3201,
      "æĸ¯çļĦ": 3202,
      "æ±Łèĭı": 3203,
      "ï¼īï¼Ľ": 3204,
      "åĴ¸": 3205,
      "åį¿": 3206,
      "èĶ¡": 3207,
      "ber": 3208,
      "åºĶçĶ¨": 3209,
      "Ġp": 3210,
      "æĬ¥åĳĬ": 3211,
      "å¤§çº¦": 3212,
      "ä¸įä¼ļ": 3213,
      "å»ºæĪĲ": 3214,
      "æķĻåĮº": 3215,
      "åŀĭçļĦ": 3216,
      "ä½ľæĪĺ": 3217,
      "è·¯æĺĵ": 3218,
      "est": 3219,
      "èīĺ": 3220,
      "åİŁæľ¬": 3221,
      "éĻĨåĨĽ": 3222,
      "çĥŁ": 3223,
      "åĪĿæľŁ": 3224,
      "ne": 3225,
      "äº¤æµģ": 3226,
      "æ¾³å¤§": 3227,
      "ãģĭ": 3228,
      "åħ¬å¸ĥ": 3229,
      "å®ĹæķĻ": 3230,
      "è¯Ĭ": 3231,
      "ich": 3232,
      "ãģ¨": 3233,
      "æĹłçº¿": 3234,
      "Ġéĩĳ": 3235,
      "èµĦæł¼": 3236,
      "åĩºä»»": 3237,
      "âĨ": 3238,
      "Ġ9": 3239,
      "çİĭæľĿ": 3240,
      "ãģª": 3241,
      "æŃ¦åĻ¨": 3242,
      "èĳĹä½ľ": 3243,
      "ç»ĦåĲĪ": 3244,
      "ç¥ĸçĪ¶": 3245,
      "éħĴåºĹ": 3246,
      "å¥¥è¿Ĳ": 3247,
      "é©¶": 3248,
      "ä¸Ńéĥ¨": 3249,
      "åŁİåĮº": 3250,
      "æĿ¡ä»¶": 3251,
      "éī": 3252,
      "èĬĿ": 3253,
      "æĲŃ": 3254,
      "æľĭåıĭ": 3255,
      "å¹´è½»": 3256,
      "Ġ196": 3257,
      "ï¼īï¼Ī": 3258,
      "åİĺ": 3259,
      "å¹ħ": 3260,
      "åı¸ä»¤": 3261,
      "çļĦåīį": 3262,
      "ç¾Ĭ": 3263,
      "æĿ¥æºĲ": 3264,
      "æľºä¼ļ": 3265,
      "Ġå¼ł": 3266,
      "ç¥¥": 3267,
      "çĹħæ¯Ĵ": 3268,
      "è¿ĺæĺ¯": 3269,
      "æĸĳ": 3270,
      "çº²": 3271,
      "1997": 3272,
      "æ£®æŀĹ": 3273,
      "çīłä»¬": 3274,
      "åĬłåĿ¡": 3275,
      "åıĶ": 3276,
      "è¯ļ": 3277,
      "ç»ķ": 3278,
      "è§£æĶ¾": 3279,
      "èĩªåĬ¨": 3280,
      "Ġ2011": 3281,
      "Ġï¼Į": 3282,
      "åľ°åĮºçļĦ": 3283,
      "42": 3284,
      "å¹´è¢«": 3285,
      "åĲĮæł·": 3286,
      "èĮĤ": 3287,
      "åĨľä¸ļ": 3288,
      "è¯ŀ": 3289,
      "Ġ5": 3290,
      "åıĳå°Ħ": 3291,
      "å¤§èĩ£": 3292,
      "ç¨İ": 3293,
      "éģ£": 3294,
      "æīĢåľ¨": 3295,
      "ä¿ĿæĮģ": 3296,
      "å¤§éģĵ": 3297,
      "çĨŁ": 3298,
      "Ġè¥¿": 3299,
      "è¿ĽæĶ»": 3300,
      "çĶµåĬĽ": 3301,
      "Ġé©¬": 3302,
      "å®ĥçļĦ": 3303,
      "åĸľæ¬¢": 3304,
      "ãģŁ": 3305,
      "ä¸Ģä½į": 3306,
      "å¤§ä¼ļ": 3307,
      "çĹĽ": 3308,
      "è©": 3309,
      "å¼ķèµ·": 3310,
      "åĤ¨": 3311,
      "åºĬ": 3312,
      "äºĳåįĹ": 3313,
      "é¢ĨåŁŁ": 3314,
      "å°ļä¹¦": 3315,
      "äººä»¬": 3316,
      "ç»´å°Ķ": 3317,
      "çīµ": 3318,
      "ä¸ĥå¹´": 3319,
      "æĿĲæĸĻ": 3320,
      "æ§": 3321,
      "èĹ©": 3322,
      "çĽĹ": 3323,
      "æĶ¹åıĺ": 3324,
      "æ¾³å¤§åĪ©äºļ": 3325,
      "æ¶ħ": 3326,
      "åĬłçĽŁ": 3327,
      "æĻ®éĢļ": 3328,
      "å°ıåŃ¦": 3329,
      "å¤ªå¹³æ´ĭ": 3330,
      "Ġ2020": 3331,
      "IN": 3332,
      "Ġè½¦ç«Ļ": 3333,
      "åĮĸçŁ³": 3334,
      "è§Ĥä¼Ĺ": 3335,
      "èĭ¦": 3336,
      "Ġä¸ī": 3337,
      "æĹħæ¸¸": 3338,
      "çļĦä¸Ģç§į": 3339,
      "æľīçļĦ": 3340,
      "å¹³åı°": 3341,
      "è©¹": 3342,
      "åı¥": 3343,
      "èĥ¶": 3344,
      "åĩłä¹İ": 3345,
      "ä¹Ŀå¹´": 3346,
      "åĩºäºĨ": 3347,
      "è´¸æĺĵ": 3348,
      "ãĢįãĢģãĢĮ": 3349,
      "é«ĺçŃī": 3350,
      "Ġåħ¶ä»ĸ": 3351,
      "é©¾": 3352,
      "èĬ³": 3353,
      "æŃ¤åĲİ": 3354,
      "æĥĬ": 3355,
      "å³¡": 3356,
      "Ġ6": 3357,
      "æľīæĹ¶": 3358,
      "çĬ¶æĢģ": 3359,
      "ãĢĤãĢĬ": 3360,
      "ç»´å¥ĩ": 3361,
      "åĲįåįķ": 3362,
      "Ġ2009": 3363,
      "ç²Ĵ": 3364,
      "ãĤĵ": 3365,
      "æĽ¾åľ¨": 3366,
      "Ð¾Ð": 3367,
      "ĠéĻĪ": 3368,
      "è¦Ĩ": 3369,
      "å²³": 3370,
      "ç¬ĳ": 3371,
      "æĺ¯ä¸ŃåĽ½": 3372,
      "å½Ń": 3373,
      "ç®Ģä»ĭ": 3374,
      "TV": 3375,
      "çī¹æ®Ĭ": 3376,
      "æ¢¯": 3377,
      "å¹³æĸ¹ç±³": 3378,
      "åıĤèµĽ": 3379,
      "éģį": 3380,
      "æĶ¶å½ķ": 3381,
      "åħ¬åħĥ": 3382,
      "æĶ¿çŃĸ": 3383,
      "ä»²": 3384,
      "ä¹¾": 3385,
      "é¹°": 3386,
      "UTC": 3387,
      "å¤«äºº": 3388,
      "å¥½çļĦ": 3389,
      "ip": 3390,
      "éģĤ": 3391,
      "ä¸Ģå¹´": 3392,
      "ä¹Ķæ²»": 3393,
      "å¹¶åħ¥": 3394,
      "ub": 3395,
      "åĮ»åŃ¦": 3396,
      "èĭ±æĸĩ": 3397,
      "éĩįçĤ¹": 3398,
      "æĸ¯åŁº": 3399,
      "åıĸä»£": 3400,
      "æ¯ĶèµĽä¸Ń": 3401,
      "èµĦæºĲ": 3402,
      "éĥ½ä¼ļ": 3403,
      "åı¸é©¬": 3404,
      "ç²¾ç¥ŀ": 3405,
      "79": 3406,
      "æĴŀ": 3407,
      "å¨ģå°Ķ": 3408,
      "æµ®": 3409,
      "è·¯çº¿": 3410,
      "èµĲ": 3411,
      "æľºæ¢°": 3412,
      "åĨħéĥ¨": 3413,
      "ãĢĤï¼Ī": 3414,
      "ian": 3415,
      "åĿİ": 3416,
      "æĿŃ": 3417,
      "å»ºè®®": 3418,
      "Ġä¸ľ": 3419,
      "å¦ĥ": 3420,
      "æ·¡": 3421,
      "åħ«å¹´": 3422,
      "41": 3423,
      "æİī": 3424,
      "æ¹ĸåįĹ": 3425,
      "èĭ±éĽĦ": 3426,
      "ĠãĢĤ": 3427,
      "æĭĵ": 3428,
      "éĶ®": 3429,
      "çŀ": 3430,
      "éĿ¢çļĦ": 3431,
      "ä½ĵçļĦ": 3432,
      "æ³ķåħ°": 3433,
      "åĭĥ": 3434,
      "çĻ»åľº": 3435,
      "çļĦä¸Ģéĥ¨åĪĨ": 3436,
      "..": 3437,
      "ä¿ĥ": 3438,
      "å±±è¥¿": 3439,
      "88": 3440,
      "1996": 3441,
      "500": 3442,
      "äºļåİĨ": 3443,
      "éĩįè¦ģçļĦ": 3444,
      "ä¹Įåħĭåħ°": 3445,
      "æµħ": 3446,
      "åħ¥åı£": 3447,
      "ç¼ĸåī§": 3448,
      "çĵľ": 3449,
      "ä¼łè¯´": 3450,
      "çļĦä¸»": 3451,
      "Ġ2021": 3452,
      "è¶ĬåįĹ": 3453,
      "çľģä»½": 3454,
      "å¹³æĸ¹åħ¬éĩĮ": 3455,
      "éī´": 3456,
      "å´Ķ": 3457,
      "77": 3458,
      "èĩ³ä»Ĭ": 3459,
      "ç»´äºļ": 3460,
      "å¤§åŀĭ": 3461,
      "ç¾İæľ¯": 3462,
      "æµ©": 3463,
      "åĽ½çļĦ": 3464,
      "åĪºåı²": 3465,
      "1994": 3466,
      "å¡ĺ": 3467,
      "æĺ¯æĮĩ": 3468,
      "å½¦": 3469,
      "å¿«éĢŁ": 3470,
      "ran": 3471,
      "æ°§åĮĸ": 3472,
      "ç½ķ": 3473,
      "æ·±åľ³": 3474,
      "å¨±ä¹Ĳ": 3475,
      "å·ŀçļĦ": 3476,
      "ä¼¯çī¹": 3477,
      "ãĥ¼ãĥ": 3478,
      "å¸¸è§ģ": 3479,
      "æ³¢åħ°": 3480,
      "ä¸ľè¥¿": 3481,
      "æŀ¢": 3482,
      "å·´è¥¿": 3483,
      "ev": 3484,
      "åŁºéĩĳ": 3485,
      "åĲįçļĦ": 3486,
      "äºĨä¸Ģä¸ª": 3487,
      "åįģåĪĨ": 3488,
      "ç©ºåĨĽ": 3489,
      "ĠåįĹ": 3490,
      "ä¸ºä¸Ģ": 3491,
      "éĤĵ": 3492,
      "ä»·åĢ¼": 3493,
      "Ġå¹´": 3494,
      "Ġ2008": 3495,
      "å½¼å¾Ĺ": 3496,
      "ç¬¼": 3497,
      "èĪ°éĺŁ": 3498,
      "ãĤĬ": 3499,
      "éĢıè¿ĩ": 3500,
      "ĠçĶ±äºİ": 3501,
      "åĩºæĪĺ": 3502,
      "é¸¡": 3503,
      "å¤ļæ¬¡": 3504,
      "åįģä¸ī": 3505,
      "èĨľ": 3506,
      "çļĦæĹ¶åĢĻ": 3507,
      "å¤©æĸĩ": 3508,
      "åĬĽéĩı": 3509,
      "æĽ´åĲįä¸º": 3510,
      "åİĦ": 3511,
      "èĤ¡ä»½": 3512,
      "åĽ¾ä¹¦é¦Ĩ": 3513,
      "å½ĵä¸Ń": 3514,
      "å¹¿æ³Ľ": 3515,
      "å¾¡åı²": 3516,
      "æĶ¹åĪ¶ä¸º": 3517,
      "å®ļä¹ī": 3518,
      "1995": 3519,
      "çĪĨåıĳ": 3520,
      "éĦ": 3521,
      "åĢį": 3522,
      "åĩıå°ĳ": 3523,
      "æĮĤ": 3524,
      "çī©è´¨": 3525,
      "ãģĨ": 3526,
      "æĥħåĨµä¸ĭ": 3527,
      "âĨĴ": 3528,
      "çĳŀåħ¸": 3529,
      "Ġé¦Ļæ¸¯": 3530,
      "èĢĮåľ¨": 3531,
      "Ġä¸»è¦ģ": 3532,
      "Ðº": 3533,
      "é«ĺéĢŁåħ¬è·¯": 3534,
      "åĩĨå¤ĩ": 3535,
      "43": 3536,
      "ess": 3537,
      "åįĵ": 3538,
      "éģĹåĿĢ": 3539,
      "èĻĳ": 3540,
      "ä¸ĸçķĮæĿ¯": 3541,
      "æ¯ıä¸ª": 3542,
      "åĮºä¸º": 3543,
      "Ġ10": 3544,
      "åıĺæĪĲ": 3545,
      "ç§Ĵ": 3546,
      "æĸ°åĬłåĿ¡": 3547,
      "å½°": 3548,
      "æ¯ıå¹´": 3549,
      "åĪĨåŃĲ": 3550,
      "æĭŁ": 3551,
      "è¶£": 3552,
      "çĽ¸å¯¹": 3553,
      "æĦŁæŁĵ": 3554,
      "å¯¹æīĭ": 3555,
      "å¤ļä¸ª": 3556,
      "çĥŃå¸¦": 3557,
      "åĩºèº«": 3558,
      "59": 3559,
      "æľªèĥ½": 3560,
      "89": 3561,
      "51": 3562,
      "é«ĺä¸Ń": 3563,
      "ens": 3564,
      "ä¾ł": 3565,
      "å°¼æĸ¯": 3566,
      "åıĬåħ¶": 3567,
      "ry": 3568,
      "ä¹ĭå¤ĸ": 3569,
      "éĻķè¥¿": 3570,
      "éĩĮçļĦ": 3571,
      "åĮĪ": 3572,
      "çº¢èī²": 3573,
      "æİ¥å£¤": 3574,
      "åĽ½å®¶éĺŁ": 3575,
      "åĭ¤": 3576,
      "æĺŁæľŁ": 3577,
      "çŁ¥éģĵ": 3578,
      "1993": 3579,
      "åįĴ": 3580,
      "çº¿çļĦ": 3581,
      "æ³¥": 3582,
      "çĭ®": 3583,
      "é«ĺçº§": 3584,
      "åĿĬ": 3585,
      "ä¹ĲåĽ¢": 3586,
      "ĠæľĢä½³": 3587,
      "æº¶": 3588,
      "éĩĳå±ŀ": 3589,
      "åľ¨è¿Ļ": 3590,
      "ĠçļĦ": 3591,
      "æµĵ": 3592,
      "æ´Ĺ": 3593,
      "io": 3594,
      "éķ¿æľŁ": 3595,
      "ong": 3596,
      "è¯¦": 3597,
      "ä»°": 3598,
      "Ġb": 3599,
      "å¤ºå¾Ĺ": 3600,
      "1992": 3601,
      "æĮĩåĩº": 3602,
      "ue": 3603,
      "ä»¥åĲİ": 3604,
      "æŀĿ": 3605,
      "ç»ĵåĲĪ": 3606,
      "çĲĥåŃ£": 3607,
      "å®ŀæĸ½": 3608,
      "éľ¸": 3609,
      "ä¼ļåľ¨": 3610,
      "è§Ħå®ļ": 3611,
      "å®Ļ": 3612,
      "æĻĵ": 3613,
      "57": 3614,
      "æ¬²": 3615,
      "ä¼Ĭæĸ¯": 3616,
      "çĵ¦å°Ķ": 3617,
      "ç§»åĬ¨": 3618,
      "Ġ2007": 3619,
      "æĭĴç»Ŀ": 3620,
      "ãģ¾": 3621,
      "æĸ¹çļĦ": 3622,
      "å¼¥": 3623,
      "æĹ¥èĩ³": 3624,
      "ä¸ªæľĪ": 3625,
      "æĢ»éĥ¨": 3626,
      "è£ķ": 3627,
      "åĪ¸": 3628,
      "å¤ĸäº¤": 3629,
      "åĪ¶åº¦": 3630,
      "æ±Łè¥¿": 3631,
      "ä¹¾éļĨ": 3632,
      "å®ı": 3633,
      "é¢ģå¥ĸ": 3634,
      "åĬłä¸Ĭ": 3635,
      "1980": 3636,
      ")ãĢĤ": 3637,
      "çĶ¨æĿ¥": 3638,
      "æ¦Ĥå¿µ": 3639,
      "åĪ°è¾¾": 3640,
      "å±ı": 3641,
      "ãĤĭ": 3642,
      "éģŃåĪ°": 3643,
      "çŃ¹": 3644,
      "æİ¥è¿ĳ": 3645,
      "ä¸ĢæŃ¥": 3646,
      "æľªæĿ¥": 3647,
      "å¡ĳ": 3648,
      "èĥľåĪ©": 3649,
      "åĽĽåįģ": 3650,
      "åĲĪçī©": 3651,
      "ÑĤ": 3652,
      "NA": 3653,
      "çļĦé¦ĸ": 3654,
      "åħ¥éĢī": 3655,
      "å®ŀçİ°": 3656,
      "çĽĳçĿ£": 3657,
      "è¿Ľè¡ĮäºĨ": 3658,
      "nd": 3659,
      "ä¸įåı¯": 3660,
      "è¹": 3661,
      "çĻ½èī²": 3662,
      "ç¡ķ": 3663,
      "86": 3664,
      "å±ķå¼Ģ": 3665,
      "è¯¾ç¨ĭ": 3666,
      "53": 3667,
      "æĺİæĺ¾": 3668,
      "å½ĵéĢī": 3669,
      "è¿ĶåĽŀ": 3670,
      "ĠåıĤ": 3671,
      "54": 3672,
      "æĶ¹éĿ©": 3673,
      "èĳ£äºĭ": 3674,
      "å±¯": 3675,
      "186": 3676,
      "åŃ©åŃĲ": 3677,
      "æ³³": 3678,
      "èĤĥ": 3679,
      "å§Ĩæĸ¯": 3680,
      "02": 3681,
      "éĩįå»º": 3682,
      "äºŃ": 3683,
      "Ġå¤©": 3684,
      "1991": 3685,
      "åŃ¦ç§ĳ": 3686,
      "ç£ģ": 3687,
      "åĲĦåľ°": 3688,
      "å¹´åīį": 3689,
      "ç²¤": 3690,
      "åĽłèĢĮ": 3691,
      "ä¸ĢåĲĮ": 3692,
      "ud": 3693,
      "æĹ¥èµ·": 3694,
      "åĲ¨": 3695,
      "å¸ĥé²ģ": 3696,
      "ç¼ĸçłģä¸ºP": 3697,
      "éļ§": 3698,
      "ä¸ĸçķĮå¤§æĪĺ": 3699,
      "ä¸Ī": 3700,
      "è¾¹çķĮ": 3701,
      "æħ§": 3702,
      "å¹¶æ²¡æľī": 3703,
      "up": 3704,
      "æĪĺåĲİ": 3705,
      "ge": 3706,
      "æ¹¿": 3707,
      "oh": 3708,
      "Ġæł¹æį®": 3709,
      "èµ·æĿ¥": 3710,
      "Ġå®ī": 3711,
      "å·ŀåĪºåı²": 3712,
      "æĩ": 3713,
      "éªĳå£«": 3714,
      "æī¹åĩĨ": 3715,
      "if": 3716,
      "ĠæĽ¾": 3717,
      "å¤§æ¥¼": 3718,
      "åĩºæ¼Ķ": 3719,
      "åħĪçĶŁ": 3720,
      "ĠåĪĺ": 3721,
      "Ġ2006": 3722,
      "ç¡®å®ļ": 3723,
      "äºļåİĨå±±": 3724,
      "å¤§èĩ´": 3725,
      "åı¯èĥ½æĺ¯": 3726,
      "åįĹåĮĹ": 3727,
      "åħ´å»º": 3728,
      "æľīæķĪ": 3729,
      "ä¹ĭåŃĲ": 3730,
      "çļĦåľ°æĸ¹": 3731,
      "æĭ³": 3732,
      "å¹´å¼Ģå§ĭ": 3733,
      "å·§": 3734,
      "ç¼ĵ": 3735,
      "åįłé¢Ĩ": 3736,
      "æł¡éķ¿": 3737,
      "åĬ²": 3738,
      "å¤§èµĽ": 3739,
      "ç¼ĸåı·": 3740,
      "æĭīåħĭ": 3741,
      "æ²³åĮĹ": 3742,
      "ç»Łè®¡": 3743,
      "åĩºçīĪç¤¾": 3744,
      "åİĺç±³": 3745,
      "æ¬£": 3746,
      "éĩįåºĨ": 3747,
      "ä¹¦è®°": 3748,
      "å®ĺåĳĺ": 3749,
      "Ġåľ°çĲĨ": 3750,
      "æ·®": 3751,
      "é£Łçī©": 3752,
      "å¤ªåŃĲ": 3753,
      "72": 3754,
      "äº§ä¸ļ": 3755,
      "Ġ/": 3756,
      "Ġl": 3757,
      "Ġäºİ": 3758,
      "ç»Łä¸Ģ": 3759,
      "æ¸ħæľĿ": 3760,
      "éĺª": 3761,
      "è²": 3762,
      "ä¸įå°ĳ": 3763,
      "å°ĶçļĦ": 3764,
      "å¦Ī": 3765,
      "æľīäºĽ": 3766,
      "ç¬¬ä¸Ģä¸ª": 3767,
      "ah": 3768,
      "æĹħå®¢": 3769,
      "éĥ½å¸Ĥ": 3770,
      "52": 3771,
      "å¨ĺ": 3772,
      "ä»ĸæĺ¯": 3773,
      "ä¸Ļ": 3774,
      "ĠåĪ¶ä½ľ": 3775,
      "%ãĢĤ": 3776,
      "é¥Ń": 3777,
      "å¼ĢéĢļ": 3778,
      "Ġ2022": 3779,
      "çļĦå½±åĵį": 3780,
      "éĥ½æľī": 3781,
      "éĿŀæ´²": 3782,
      "åĲ¯çĶ¨": 3783,
      "èģĮæ£Ĵ": 3784,
      "ä»İäºĭ": 3785,
      "è¡ĮæĺŁ": 3786,
      "çĶŁåĳ½": 3787,
      "æī§å¯¼": 3788,
      "æŃ£åľ¨": 3789,
      "ä¼ĺç§Ģ": 3790,
      "çİĽä¸½": 3791,
      "ĠåĮĹ": 3792,
      "99": 3793,
      "ĠæŃ¤": 3794,
      "æıĲåĲį": 3795,
      "éŃĤ": 3796,
      "ik": 3797,
      "åı¯åīįå¾Ģ": 3798,
      "ä¸įæĸŃ": 3799,
      "åħ¬çĪµ": 3800,
      "å§Ķä¼ļ": 3801,
      "èį¯çī©": 3802,
      "åĩºåı£": 3803,
      "ä¸§": 3804,
      "éĶģ": 3805,
      "è¿ĲåĬ¨ä¼ļ": 3806,
      "çĬ¬": 3807,
      "ĠY": 3808,
      "71": 3809,
      "éĵĥ": 3810,
      "åĬ¨åĬĽ": 3811,
      "è§Ĩä¸º": 3812,
      "ç«Ļåı°": 3813,
      "åľ°éľĩ": 3814,
      "å¤±åİ»": 3815,
      "ä½ľèĢħ": 3816,
      "åıªæĺ¯": 3817,
      "å¹´åı·": 3818,
      "çł´åĿı": 3819,
      "éļıçĿĢ": 3820,
      "èŃ¦å¯Ł": 3821,
      "éļ§éģĵ": 3822,
      "èĪĴ": 3823,
      "çĭĤ": 3824,
      "åĤħ": 3825,
      "ç®±": 3826,
      "é¸£": 3827,
      "åĩºåľº": 3828,
      "çĸı": 3829,
      "æĪĲä¸ºäºĨ": 3830,
      "åĪĽç«ĭ": 3831,
      "å¸ħ": 3832,
      "æµ·å²¸": 3833,
      "Ġv": 3834,
      "ç¬¬åħŃ": 3835,
      "èĤ¥": 3836,
      "è®®éĻ¢": 3837,
      "å¥³åĦ¿": 3838,
      "ok": 3839,
      "å°Ķçī¹": 3840,
      "ç¢³": 3841,
      "è¡¨éĿ¢": 3842,
      "ç¥ŀç»ı": 3843,
      "æŀĦæĪĲ": 3844,
      "åįĬå²Ľ": 3845,
      "æ³Ĭ": 3846,
      "äº²çİĭ": 3847,
      "æıĴ": 3848,
      "uc": 3849,
      "éħ¶": 3850,
      "æĽ¾ä»»": 3851,
      "æĳĦå½±": 3852,
      "çĸ¾çĹħ": 3853,
      "Ġ2005": 3854,
      "å§¬": 3855,
      "äºĭä¸ļ": 3856,
      "è½°": 3857,
      "æĸĩçī©ä¿ĿæĬ¤": 3858,
      "æ¬¢è¿İ": 3859,
      "Ġand": 3860,
      "å¿Ĩ": 3861,
      "åŁºäºİ": 3862,
      "çļĦçłĶç©¶": 3863,
      "å¤§æ¡¥": 3864,
      "èµ°åĲĳ": 3865,
      "æĪĴ": 3866,
      "è¿ħ": 3867,
      "ä¿ĿçķĻ": 3868,
      "æĤ¬": 3869,
      "åī²": 3870,
      "è°ĵ": 3871,
      "çĽ´èĩ³": 3872,
      "é¼ł": 3873,
      "ain": 3874,
      "åįģåħŃ": 3875,
      "åľ¨ç¾İåĽ½": 3876,
      "ob": 3877,
      "çļĩåĲİ": 3878,
      "è¾°": 3879,
      "å¤ıåŃ£": 3880,
      "å°Ķåħ°": 3881,
      "73": 3882,
      "èģļèĲ½": 3883,
      "æĺŃåĴĮ": 3884,
      "éķ¿çº¦": 3885,
      "æĺ¯ä¸ĢåĲį": 3886,
      "éĤĢè¯·": 3887,
      "å¹¿åĳĬ": 3888,
      "åĳ¨è¾¹": 3889,
      "åŃ¦ä¼ļ": 3890,
      "åį«çĶŁ": 3891,
      "çĶµåı°": 3892,
      "æī®": 3893,
      "å¸ĤçļĦ": 3894,
      "èįĴ": 3895,
      "åįıè®®": 3896,
      "ä»ĳ": 3897,
      "æĢ»çĿ£": 3898,
      "çľĭåĪ°": 3899,
      "ĠåİŁ": 3900,
      "åĴĮå¹³": 3901,
      "æĬķç¥¨": 3902,
      "å£®": 3903,
      "å°ĳå¥³": 3904,
      "åĽ½åĨħ": 3905,
      "çł²": 3906,
      "åĿĤ": 3907,
      "è§ĦåĪĻ": 3908,
      "çļĦç¬¬ä¸Ģ": 3909,
      "åĲĪå¹¶ä¸º": 3910,
      "ä¸²": 3911,
      "çĽ¸ä¼¼": 3912,
      "çĦ¦": 3913,
      "åĮ»çĶŁ": 3914,
      "äº¨åĪ©": 3915,
      "å£«åħµ": 3916,
      "åĩĮ": 3917,
      "è¯ķåĽ¾": 3918,
      "èĥ¸": 3919,
      "åŀĤ": 3920,
      "è´¨éĩı": 3921,
      "æŁ´æ²¹": 3922,
      "åĩŃ": 3923,
      "ä¸ĩåİĨ": 3924,
      "BC": 3925,
      "%ï¼Į": 3926,
      "åıªèĥ½": 3927,
      "æ®ĸæ°ĳ": 3928,
      "åŁºåĽł": 3929,
      "æĬķåħ¥": 3930,
      "èĳĹåĲįçļĦ": 3931,
      "æĪĸæĺ¯": 3932,
      "Ġé»Ħ": 3933,
      "èĭıæł¼åħ°": 3934,
      "èĢĮæĪĲ": 3935,
      "è®°èĢħ": 3936,
      "çİ»": 3937,
      "äºļåĨĽ": 3938,
      "æĹ¦": 3939,
      "çıĬ": 3940,
      "SE": 3941,
      "ãĢģâĢľ": 3942,
      "æ´ģ": 3943,
      "å¹¿è¥¿": 3944,
      "ç¥Ŀ": 3945,
      "ãģ¿": 3946,
      "ç²®": 3947,
      "èľĤ": 3948,
      "150": 3949,
      "300": 3950,
      "85": 3951,
      "1950": 3952,
      "èĳ¡èĲĦçīĻ": 3953,
      "å©Ĩ": 3954,
      "çĽ®çļĦ": 3955,
      "éĽĨä¸Ń": 3956,
      "ity": 3957,
      "åįµ": 3958,
      "åĩ½": 3959,
      "é«ĺçļĦ": 3960,
      "æ°ĶåĢĻ": 3961,
      "è§£åĨ³": 3962,
      "è§Ĥå¯Ł": 3963,
      "åº¦çļĦ": 3964,
      "éĶĢåĶ®": 3965,
      "çŁ¥åİ¿": 3966,
      "æĿĢæŃ»": 3967,
      "74": 3968,
      "æĮĳæĪĺ": 3969,
      "çĬ¹å¤ª": 3970,
      "æĸľ": 3971,
      "çĭ¼": 3972,
      "äººåľ¨": 3973,
      "çĶ¨çļĦ": 3974,
      "åŁĥåıĬ": 3975,
      "åģ¥åº·": 3976,
      "è±Ĩ": 3977,
      "æĺ¯ç¾İåĽ½": 3978,
      "åĢ¾": 3979,
      "å¼¦": 3980,
      "ãģ«": 3981,
      "åĺīéĿĸ": 3982,
      "ãĤ·": 3983,
      "æľĢåĲİä¸Ģ": 3984,
      "å®¢è¿Ĳ": 3985,
      "çªĹ": 3986,
      "ĠæĹ¥æľ¬": 3987,
      "æĢĴ": 3988,
      "èµ´": 3989,
      "éĽĢ": 3990,
      "ä¸ĭè¾ĸ": 3991,
      "æĴ°": 3992,
      "çī¹çļĦ": 3993,
      "æĸĩçī©ä¿ĿæĬ¤åįķä½į": 3994,
      "ä½ľè¯į": 3995,
      "æĻ¨": 3996,
      "å¤©çļĩ": 3997,
      "ä½¿çĶ¨çļĦ": 3998,
      "è¿ĩç¨ĭä¸Ń": 3999,
      "éĺħ": 4000,
      "åĮĸçļĦ": 4001,
      "ç®¡è¾ĸ": 4002,
      "æĶ¶åħ¥": 4003,
      "åıĮæĸ¹": 4004,
      "BA": 4005,
      "äºīè®®": 4006,
      "è¯ģæĺİ": 4007,
      "æĲ¬": 4008,
      "ä¸įåĨį": 4009,
      "åĽĽä¸ª": 4010,
      "åĪĹä¸º": 4011,
      "éļıèĳĹ": 4012,
      "å¤§åĮº": 4013,
      "æĸ¹æ¡Ī": 4014,
      "åĺ´": 4015,
      "å¤·": 4016,
      "åħĥç´ł": 4017,
      "Ġè¿Ļ": 4018,
      "æĿĨ": 4019,
      "ä¹ĭæĪĺ": 4020,
      "å¿į": 4021,
      "å²Ĺ": 4022,
      "æ°´å¹³": 4023,
      "åĽ¢éĺŁ": 4024,
      "1988": 4025,
      "é¦ĸéĥ½": 4026,
      "ä»ĭç»į": 4027,
      "eg": 4028,
      "æĿ¥åĪ°": 4029,
      "çĪ±å°Ķåħ°": 4030,
      "1989": 4031,
      "ä¸ĩäºº": 4032,
      "æµĭè¯ķ": 4033,
      "åī§æľ¬": 4034,
      "é©¬åħĭ": 4035,
      "ä¿Ŀç½Ĺ": 4036,
      "ç¾½æ¯Ľ": 4037,
      "è£ħç½®": 4038,
      "å¨ĥ": 4039,
      "åľ°åĪ©": 4040,
      "ä¾¦": 4041,
      "åĬĽçļĦ": 4042,
      "çĪ¶æ¯į": 4043,
      "éĢĢå½¹": 4044,
      "é²į": 4045,
      "å®ĩå®Ļ": 4046,
      "å«ģ": 4047,
      "ãģį": 4048,
      "è¢ģ": 4049,
      "æĶ¶è´Ń": 4050,
      "Ġ8": 4051,
      "ä¸Ĭéĺµ": 4052,
      "æŃ¤æĹ¶": 4053,
      "åĸ·": 4054,
      "å¯Ĵ": 4055,
      "åĪĽåĬŀ": 4056,
      "è®·": 4057,
      "å°¤åħ¶": 4058,
      "çĶŁéķ¿": 4059,
      "æľīä¸Ģä¸ª": 4060,
      "å·¥åİĤ": 4061,
      "ĠIn": 4062,
      "æ¶¦": 4063,
      "å¤§å¥ĸ": 4064,
      "è¿Ľä¸ĢæŃ¥": 4065,
      "ä¸¾äºº": 4066,
      "æŁĶ": 4067,
      "åĲı": 4068,
      "æĹ¥çļĦ": 4069,
      "è·ĥ": 4070,
      "è§£éĩĬ": 4071,
      "å½»": 4072,
      "åı¤ä»£": 4073,
      "66": 4074,
      "åĨįåº¦": 4075,
      "äººå£«": 4076,
      "å°±è¯»": 4077,
      "åĮ»çĸĹ": 4078,
      "åı°ä¸Ń": 4079,
      "æ¾³æ´²": 4080,
      "BS": 4081,
      "çĶ¸": 4082,
      "ãģķ": 4083,
      "ä¸ľæĸ¹": 4084,
      "ãĤ¸": 4085,
      "Ġãĥ": 4086,
      "å¢¨è¥¿": 4087,
      "ç¢į": 4088,
      "å¥ĳ": 4089,
      "æĺ¯æĹ¥æľ¬": 4090,
      "æŃ¦æ±ī": 4091,
      "Ġ7": 4092,
      "åħ¶å®ĥ": 4093,
      "ãģĬ": 4094,
      "éĵ¾": 4095,
      "åįģå¹´": 4096,
      "é¾Ł": 4097,
      "ey": 4098,
      "å¿ĥçĲĨ": 4099,
      "çĭĦ": 4100,
      "ä»¥åīį": 4101,
      "ç¿ł": 4102,
      "ort": 4103,
      "éĻĲåĪ¶": 4104,
      "éĢĨ": 4105,
      "åįģåŃĹ": 4106,
      "å®īå¾·": 4107,
      "æłĸæģ¯": 4108,
      "åģľæŃ¢": 4109,
      "æŃ¥åħµ": 4110,
      "ç¿»è¯ĳ": 4111,
      "ĠâĢľ": 4112,
      "å°¸": 4113,
      "Ġæ¼Ķåĳĺ": 4114,
      "æĪĲç«ĭäºİ": 4115,
      "éĺ¿æĭīä¼¯": 4116,
      "å£³": 4117,
      "æ¯ķä¸ļäºİ": 4118,
      "ç¢İ": 4119,
      "å°ıç»Ħ": 4120,
      "Al": 4121,
      "åĨĴ": 4122,
      "åĭĭç«ł": 4123,
      "åŃ¤": 4124,
      "ä¸¤ç§į": 4125,
      "åħ¥ä¾µ": 4126,
      "åĲĮä¸Ģ": 4127,
      "æĭīå¤«": 4128,
      "ä»İèĢĮ": 4129,
      "çĽ¾": 4130,
      "èĦĬ": 4131,
      "ç¼ħ": 4132,
      "é¼»": 4133,
      "å®īå¾½": 4134,
      "æĢ»çĲĨ": 4135,
      "ä¸ŃéĹ´": 4136,
      "éĩĳèŀį": 4137,
      "å¤±è´¥": 4138,
      "Ġåľ£": 4139,
      "éĥĬ": 4140,
      "åį«æĺŁ": 4141,
      "è¡į": 4142,
      "èĦı": 4143,
      "ç¥¨æĪ¿": 4144,
      "æ¯ĶåĪ©": 4145,
      "æ¹ĸåĮĹ": 4146,
      "ãĤ¿": 4147,
      "å¸ĤåĮº": 4148,
      "å¦ĤæŃ¤": 4149,
      "å¤§å¤ļæķ°": 4150,
      "çĹĩçĬ¶": 4151,
      "æĶ¶è§Ĩ": 4152,
      "åĬ±": 4153,
      "1970": 4154,
      "ä½ĽæķĻ": 4155,
      "æĭīä¸ģ": 4156,
      "Ġ12": 4157,
      "éĤ®æĶ¿": 4158,
      "èĢĮè¢«": 4159,
      "æ¤İ": 4160,
      "çĳŀå£«": 4161,
      "åħ±äº§": 4162,
      "è°ĥæķ´": 4163,
      "èĥİ": 4164,
      "ä»¿": 4165,
      "äºĭæķħ": 4166,
      "çļĦæķħäºĭ": 4167,
      "ä¸¸": 4168,
      "æ·ĺ": 4169,
      "è·¯åı£": 4170,
      "åĩī": 4171,
      "åĪĽéĢł": 4172,
      "æłª": 4173,
      "åľŁèĢ³": 4174,
      "å®£ä¼ł": 4175,
      "æĺ¯æ³ķåĽ½": 4176,
      "ä¹ı": 4177,
      "æĺ¯åĲ¦": 4178,
      "Ġç¬¬äºĮ": 4179,
      "å®¶çļĦ": 4180,
      "ç½ĳç«Ļ": 4181,
      "çŁ¶": 4182,
      "ç§ĺä¹¦": 4183,
      "åľŁèĢ³åħ¶": 4184,
      "Ð»": 4185,
      "å¥¥æŀĹ": 4186,
      "1986": 4187,
      "96": 4188,
      "åŃ¦æľ¯": 4189,
      "Ġåī§æĥħ": 4190,
      "éĩĮäºļ": 4191,
      "æĴŃæĶ¾": 4192,
      "æķĻåŃ¦": 4193,
      "é¸¿": 4194,
      "Ġéķ¿": 4195,
      "éĢļè½¦": 4196,
      "æĺ¯ä½įäºİ": 4197,
      "æĪıåī§": 4198,
      "ä¸īä¸ĸ": 4199,
      "æ»©": 4200,
      "åĬ¨ä½ľ": 4201,
      "åĹ£": 4202,
      "èĢĢ": 4203,
      "çİ°è±¡": 4204,
      "æľ¬ç«Ļ": 4205,
      "é»ĳèī²": 4206,
      "æķĪæŀľ": 4207,
      "å±±èĦī": 4208,
      "æĲľ": 4209,
      "åĥ§": 4210,
      "è¯ı": 4211,
      "ast": 4212,
      "æĺ¯ä¸Ģä½į": 4213,
      "âĢ¦âĢ¦": 4214,
      "åĽ½ä¼ļ": 4215,
      "éĽĮ": 4216,
      "æķĻå¸Ī": 4217,
      "åĵģçīĮ": 4218,
      "ä¸įå¾Ĺ": 4219,
      "å¥¥åľ°åĪ©": 4220,
      "æ½Ń": 4221,
      "åįľ": 4222,
      "ãĤī": 4223,
      "ãĥ¬": 4224,
      "æĪªèĩ³": 4225,
      "æµ·æĭĶ": 4226,
      "çĭĹ": 4227,
      "çİĩé¢Ĩ": 4228,
      "å¢¨è¥¿åĵ¥": 4229,
      "åįģäºĶ": 4230,
      "æĹ¢": 4231,
      "ç§ĳåŃ¦éĻ¢": 4232,
      "å»Ĭ": 4233,
      "çļĦçī¹": 4234,
      "å¾ª": 4235,
      "åıī": 4236,
      "ä¼Ļ": 4237,
      "åĬŀåħ¬å®¤": 4238,
      "man": 4239,
      "Ġç¬¬ä¸Ģ": 4240,
      "çļĦåİŁ": 4241,
      "èĤĮ": 4242,
      "ä¿¡åı·": 4243,
      "æĦıä¹ī": 4244,
      "ä»¥å¤ĸ": 4245,
      "æľ¬åľ°åĮº": 4246,
      "å»¶ä¼¸": 4247,
      "âĶ": 4248,
      "1987": 4249,
      "Ġæ¦Ĥ": 4250,
      "è¡°": 4251,
      "åİĨä»»": 4252,
      "éĩĳæĽ²": 4253,
      "åĩĿ": 4254,
      "Ġåīį": 4255,
      "å¯®": 4256,
      "æ°¢": 4257,
      "æĺ¯ä»¥": 4258,
      "åľ°ä½į": 4259,
      "æĿ¥è¯´": 4260,
      "åħĭéĩĮ": 4261,
      "Ġä¸Ģ": 4262,
      "çļĦå¤ĸ": 4263,
      "ç¼ĸæĽ²": 4264,
      "ä¸¹éº¦": 4265,
      "çľģçº§": 4266,
      "åİ¿äºº": 4267,
      "åįģåĽĽ": 4268,
      "åıĪåĲį": 4269,
      "å½ĵæĹ¶çļĦ": 4270,
      "åĩºçİ°åľ¨": 4271,
      "æĮĩå¯¼": 4272,
      "åıĸæ¶Ī": 4273,
      "ĠçĶµå½±": 4274,
      "æĹº": 4275,
      "æĶ¹éĢł": 4276,
      "ç¨³å®ļ": 4277,
      "åĸĢ": 4278,
      "åĲĮæĦı": 4279,
      "ä¸īè§Ĵ": 4280,
      "å²ģçļĦ": 4281,
      "our": 4282,
      "çĲī": 4283,
      "ç±³å°Ķ": 4284,
      "1985": 4285,
      "å¤ªç©º": 4286,
      "ç»´æĮģ": 4287,
      "çİ°æĹ¶": 4288,
      "åİĨåı²ä¸Ĭ": 4289,
      "ç½ļ": 4290,
      "çĸĨ": 4291,
      "ç°": 4292,
      "è¯´æ³ķ": 4293,
      "ç¿ģ": 4294,
      "æİĪäºĪ": 4295,
      "âĢĿãĢģâĢľ": 4296,
      "è¢«è®¤ä¸ºæĺ¯": 4297,
      "æ²³æµģ": 4298,
      "å¤Ħäºİ": 4299,
      "åºĶè¯¥": 4300,
      "ä¹Łè¢«": 4301,
      "çŁ¥åĲį": 4302,
      "æ³¨æĦı": 4303,
      "æķ°åŃ¦": 4304,
      "æıĲé«ĺ": 4305,
      "IS": 4306,
      "åħ¶ä½Ļ": 4307,
      "ãģ¡": 4308,
      "è´¡çĮ®": 4309,
      "ãĥ³ãĥ": 4310,
      "å®īæİĴ": 4311,
      "ä¸´æĹ¶": 4312,
      "é«ĺåº¦": 4313,
      "æĮª": 4314,
      "éĤ£éĩĮ": 4315,
      "å¯Ħ": 4316,
      "ä¸Ģå®¶": 4317,
      "å®Įæķ´": 4318,
      "æľ´": 4319,
      "ä¹Łä¼ļ": 4320,
      "ä¸Ģå¸¦": 4321,
      "åĲİæľŁ": 4322,
      "ç²Ĺ": 4323,
      "èħº": 4324,
      "èĥģ": 4325,
      "å¡«": 4326,
      "å¥¥æŀĹåĮ¹": 4327,
      "Ġä¼Ĭ": 4328,
      "å°ıçļĦ": 4329,
      "çľģéģĵ": 4330,
      "åħ¸ç¤¼": 4331,
      "è²Į": 4332,
      "èĦĤ": 4333,
      "è¯¥åºĦ": 4334,
      "æŁĲäºĽ": 4335,
      "æį¢ä¹ĺ": 4336,
      "son": 4337,
      "æīĵåĩ»": 4338,
      "çĴĥ": 4339,
      "èĬ±åĽŃ": 4340,
      "å¹´çĶ±": 4341,
      "ĠãĢİ": 4342,
      "èĪŀåı°": 4343,
      "è¿Ŀ": 4344,
      "æĶ¾å¼ĥ": 4345,
      "ä»ĩ": 4346,
      "è¢Ńåĩ»": 4347,
      "'s": 4348,
      "Ġç¾İåĽ½": 4349,
      "æķ°åŃĹ": 4350,
      "æľīäºº": 4351,
      "é¾ĻçļĦ": 4352,
      "1945": 4353,
      "éªĳåħµ": 4354,
      "èµ¶": 4355,
      "æģĴæĺŁ": 4356,
      "è¸ª": 4357,
      "èŁ": 4358,
      "ç¬¬ä¸ĥ": 4359,
      "çİĭåŃĲ": 4360,
      "au": 4361,
      "åįģåħ«": 4362,
      "åĳ½åĲįä¸º": 4363,
      "éģĹäº§": 4364,
      "åľ°çĤ¹": 4365,
      "äº¿åħĥ": 4366,
      "æĹ¨": 4367,
      "è®²è¿°": 4368,
      "å¤§ä½¿": 4369,
      "æĽ°": 4370,
      "æµ·éģĵ": 4371,
      "èĬĤåº¦": 4372,
      "å®¹æĺĵ": 4373,
      "èľľ": 4374,
      "äººåĴĮ": 4375,
      "æĹ©å¹´": 4376,
      "æİ¥è§¦": 4377,
      "Ġ2004": 4378,
      "å¸ĥæĭī": 4379,
      "åħģè®¸": 4380,
      "äººæķ°": 4381,
      "è¯ķéªĮ": 4382,
      "ä»ªå¼ı": 4383,
      "å¤§åİ¦": 4384,
      "è¾Ĳ": 4385,
      "èĢĥèĻĳ": 4386,
      "èĲ¨åħĭ": 4387,
      "Ġäººåı£": 4388,
      "1960": 4389,
      "å§ľ": 4390,
      "äºļåİĨå±±å¤§": 4391,
      "ç§įåŃĲ": 4392,
      "ç»ıåħ¸": 4393,
      "æĸ¯å¡Ķ": 4394,
      "å§Ĭ": 4395,
      "ãĥŃ": 4396,
      "åī§åľº": 4397,
      "igh": 4398,
      "ä¾įéĥİ": 4399,
      "èĩ³å°ĳ": 4400,
      "ew": 4401,
      "ark": 4402,
      "æłĩå¿Ĺ": 4403,
      "æŁıæŀĹ": 4404,
      "éĿ¢å¯¹": 4405,
      "åĮĹäº¬å¸Ĥ": 4406,
      "å¥¶": 4407,
      "åī©": 4408,
      "æµ·æ´ĭ": 4409,
      "æī¹è¯Ħ": 4410,
      "åİĿ": 4411,
      "å¾Ĺä»¥": 4412,
      "åıĳåĶ®": 4413,
      "ä»Ģä¹Ī": 4414,
      "ãĤ«": 4415,
      "æ»ļ": 4416,
      "èįĲ": 4417,
      "éĴ¦": 4418,
      "è£ħå¤ĩ": 4419,
      "åĲİèĢħ": 4420,
      "çīµå¼ķ": 4421,
      "æĹ¥æ²»": 4422,
      "å±¿": 4423,
      "çİ°åľº": 4424,
      "çħ¤": 4425,
      "åĽ½ç«ĭ": 4426,
      "åĵĪå°Ķ": 4427,
      "èĸĽ": 4428,
      "ä¿ĿåŃĺ": 4429,
      "åľ°çļĦ": 4430,
      "æĦıæĢĿ": 4431,
      "é¡µ": 4432,
      "åĳ½ä»¤": 4433,
      "çļĦä¸Ģåº§": 4434,
      "å¦Ĥä¸ĭ": 4435,
      "åĩºæĿ¥": 4436,
      "èħ¾": 4437,
      "åĲĪæĪĲ": 4438,
      "éĺŁä¼į": 4439,
      "åħ¬åı¸çļĦ": 4440,
      "åģ·": 4441,
      "åĽ½åĬ¡": 4442,
      "çĬ¶åĨµ": 4443,
      "æĦŁåĪ°": 4444,
      "åĲĲ": 4445,
      "Ġå®¶æĹı": 4446,
      "ãģı": 4447,
      "AR": 4448,
      "ai": 4449,
      "åµ": 4450,
      "ãĢĭï¼ļ": 4451,
      "èī²åĪĹ": 4452,
      "å½¢æĢģ": 4453,
      "é£Łåĵģ": 4454,
      "å²ģæĹ¶": 4455,
      "ï¼ĮãĢĮ": 4456,
      "ãĥŀ": 4457,
      "ãģ¯": 4458,
      "æŃ»åĲİ": 4459,
      "åŁºçĿ£æķĻ": 4460,
      "åĨĽçļĦ": 4461,
      "æ¨±": 4462,
      "éģ¿åħį": 4463,
      "åħ¬åĪĨ": 4464,
      "åĿĿ": 4465,
      "ä¸Ģåº¦": 4466,
      "çģĮ": 4467,
      "éĻĢ": 4468,
      "éĵº": 4469,
      "1984": 4470,
      "oun": 4471,
      "åħĭèİ±": 4472,
      "é¹¤": 4473,
      "åįģäºĮå¹´": 4474,
      "æĬĳ": 4475,
      "ä¸ĢæĿ¡": 4476,
      "åŁİåł¡": 4477,
      "æĺİæĺŁ": 4478,
      "ass": 4479,
      "ep": 4480,
      "å¯ŁéĻ¢": 4481,
      "æŃ¢äºİ": 4482,
      "çº§èģĶèµĽ": 4483,
      "æĿ¡çº¦": 4484,
      "åĲ¸å¼ķ": 4485,
      "æ±°": 4486,
      "ç«ŀäºī": 4487,
      "çĻĮ": 4488,
      "æºĲäºİ": 4489,
      "åºŀ": 4490,
      "å¯»æī¾": 4491,
      "ric": 4492,
      "åĿ¦åħĭ": 4493,
      "ç»ĵæĿŁåĲİ": 4494,
      "Â°": 4495,
      "ç£¨": 4496,
      "ç¥Ģ": 4497,
      "ãģ¦": 4498,
      "æ¬¡å¹´": 4499,
      "æľĪèĩ³": 4500,
      "çģ«ç®Ń": 4501,
      "å°Ŀ": 4502,
      "ä¹ĭä¸ĭ": 4503,
      "èĩªè¡Į": 4504,
      "è´«": 4505,
      "æįĲ": 4506,
      "æī°": 4507,
      "å°ĳæķ°": 4508,
      "åľ°è´¨": 4509,
      "æİĺ": 4510,
      "å±ķç¤º": 4511,
      "ä¹¡è¯ķ": 4512,
      "æĬ¥éģĵ": 4513,
      "æĢĿæĥ³": 4514,
      "68": 4515,
      "é©±éĢĲ": 4516,
      "æīįèĥ½": 4517,
      "æĦıä¸º": 4518,
      "å¤ļç§į": 4519,
      "åĦĴ": 4520,
      "æĸ°å¢ŀ": 4521,
      "ä¸ĵéĹ¨": 4522,
      "èķ¾": 4523,
      "ä¹ĭä¸Ń": 4524,
      "æ±¡": 4525,
      "æĳĩ": 4526,
      "è§£æĶ¾åĨĽ": 4527,
      "åĩĢ": 4528,
      "æŃĩ": 4529,
      "æĸ¯åħĭ": 4530,
      "åıĹä¼¤": 4531,
      "å¤ķ": 4532,
      "æľĪåįĩ": 4533,
      "åĴĮåħ¶ä»ĸ": 4534,
      "åĽ½éĺ²": 4535,
      "èĸĦ": 4536,
      "æ··åĲĪ": 4537,
      "ç±»åŀĭ": 4538,
      "ä¸įè¶³": 4539,
      "64": 4540,
      "çĶ±æŃ¤": 4541,
      "çĮĽ": 4542,
      "æ¸©åº¦": 4543,
      "è¢ĸ": 4544,
      "çİ°ä»»": 4545,
      "Ġä»İ": 4546,
      "ont": 4547,
      "æłĩæľ¬": 4548,
      "æĿ°åħĭ": 4549,
      "å¸¦é¢Ĩ": 4550,
      "éĹª": 4551,
      "æĻ®éģį": 4552,
      "åħ¨éķ¿": 4553,
      "å®ŀéªĮå®¤": 4554,
      "Ġä»ĸ": 4555,
      "å¹¶éĿŀ": 4556,
      "æĶ¿æĿĥ": 4557,
      "å·«": 4558,
      "æĬ½": 4559,
      "éĺ²å¾¡": 4560,
      "ä¸ĳ": 4561,
      "èĢĮæĺ¯": 4562,
      "åī§éĻ¢": 4563,
      "å¼Łå¼Ł": 4564,
      "åħĭéĩĮæĸ¯": 4565,
      "ä¹Łåı¯ä»¥": 4566,
      "ä¸»é¢ĺæĽ²": 4567,
      "èĬ¬åħ°": 4568,
      "62": 4569,
      "ack": 4570,
      "ä¸Ńå±±": 4571,
      "ä¸ĩåħĥ": 4572,
      "å¥¥å°Ķ": 4573,
      "å¾ĹçŁ¥": 4574,
      "ç¨ĭåº¦": 4575,
      "æ³°åĽ½": 4576,
      "ç¨¿": 4577,
      "æī®æ¼Ķ": 4578,
      "ä¼ļçļĦ": 4579,
      "Ġèĩª": 4580,
      "ç¼ĸè¾ĳ": 4581,
      "æ£ĺ": 4582,
      "ä¸ŀ": 4583,
      "åĿª": 4584,
      "èĴ¸": 4585,
      "äº¦æľī": 4586,
      "é¢ľèī²": 4587,
      "çļĦéķ¿": 4588,
      "åĵ²åŃ¦": 4589,
      "ç¡ķå£«": 4590,
      "åº·çĨĻ": 4591,
      "ä»¥èī²åĪĹ": 4592,
      "åı°åįĹ": 4593,
      "ä¹ĲéĺŁ": 4594,
      "æī¿è®¤": 4595,
      "åĲĪçº¦": 4596,
      "æľºåħ³": 4597,
      "å¥İ": 4598,
      "æıĲåįĩ": 4599,
      "æĬµè¾¾": 4600,
      "çļĦä½ľåĵģ": 4601,
      "95": 4602,
      "è¤Ĳ": 4603,
      "åĨ²çªģ": 4604,
      "åİŁåĲį": 4605,
      "ĠåĴĮ": 4606,
      "ä¿ĺ": 4607,
      "æ¸Ķ": 4608,
      "æ¼Ķå¥ı": 4609,
      "ä¹Łåľ¨": 4610,
      "Ġin": 4611,
      "éŃĶæ³ķ": 4612,
      "çĢ": 4613,
      "äºĮäºº": 4614,
      "æ°´åºĵ": 4615,
      "èİ«æĸ¯ç§ĳ": 4616,
      "åľ°éĿ¢": 4617,
      "å¥¥æŀĹåĮ¹åħĭ": 4618,
      "çļĦä¸ī": 4619,
      "äººæ°ĳæĶ¿åºľ": 4620,
      "åį¡æĭī": 4621,
      "Ġç½Ĺ": 4622,
      "km": 4623,
      "83": 4624,
      "ord": 4625,
      "å®ŀéĻħä¸Ĭ": 4626,
      "æĸ¤": 4627,
      "è´¢æĶ¿": 4628,
      "æľ¬èº«": 4629,
      "æĢ§è´¨": 4630,
      "å½¢è±¡": 4631,
      "1983": 4632,
      "åŁĥå°Ķ": 4633,
      "æĻĭçº§": 4634,
      "çļĦæĸ¹å¼ı": 4635,
      "åľ°å¸¦": 4636,
      "èŀº": 4637,
      "éļĭ": 4638,
      "å¹½": 4639,
      "éĺĶ": 4640,
      "ĠæĶ¿æ²»": 4641,
      "çĶ·æĢ§": 4642,
      "ER": 4643,
      "æ±Ģ": 4644,
      "æľºåĻ¨": 4645,
      "æģŃ": 4646,
      "ä¸Īå¤«": 4647,
      "å¹¶æľª": 4648,
      "éĨĴ": 4649,
      "åĳ¨åĽ´": 4650,
      "çĪ±æĥħ": 4651,
      "å¼¯": 4652,
      "qu": 4653,
      "è¿Ł": 4654,
      "æŃ¦è£ħ": 4655,
      "æª": 4656,
      "çĶ¨éĢĶ": 4657,
      "å®īè£ħ": 4658,
      "An": 4659,
      "è¯¢": 4660,
      "ç¿Ķ": 4661,
      "æł¸å¿ĥ": 4662,
      "Ġç®Ģä»ĭ": 4663,
      "ãģĤ": 4664,
      "æłĹ": 4665,
      "180": 4666,
      "æł¡åĮº": 4667,
      "å¥¹åľ¨": 4668,
      "æŃ¦å¸Ŀ": 4669,
      "å·¢": 4670,
      "æĬ¢": 4671,
      "æĦıè¯Ĩ": 4672,
      "è´µæĹı": 4673,
      "ä¸Ńæľī": 4674,
      "åĩºåħ¥åı£": 4675,
      "çĶŁçļĦ": 4676,
      "æĹĹä¸ĭ": 4677,
      "çĲ¼": 4678,
      "å½ĵå¹´": 4679,
      "æ¨¡åŀĭ": 4680,
      "æ³¨åĨĮ": 4681,
      "æĹ¥åĨĽ": 4682,
      "1920": 4683,
      "å¾Īå¿«": 4684,
      "aw": 4685,
      "çļĦæµ·": 4686,
      "ä¸ŃåĽ½äººæ°ĳ": 4687,
      "ç»¿èī²": 4688,
      "ä¸Ģåº§": 4689,
      "è½¬ä¼ļ": 4690,
      "ä»ĸè¢«": 4691,
      "çĶµæ°Ķ": 4692,
      "è¦ĨçĽĸ": 4693,
      "æľĿå»·": 4694,
      "çĶ³è¯·": 4695,
      "æĮªå¨ģ": 4696,
      "åī§éĽĨ": 4697,
      "å§ļ": 4698,
      "éĢļéģĵ": 4699,
      "æĮīçħ§": 4700,
      "2023": 4701,
      "Ġä¸Ĭ": 4702,
      "æ·ĺæ±°": 4703,
      "Ġäº¤éĢļ": 4704,
      "å¦ĸ": 4705,
      "è½¬åĲĳ": 4706,
      "çŁ¥è¯Ĩ": 4707,
      "å®ļä¸º": 4708,
      "çĶ¨ä½ľ": 4709,
      "æĺ¯ä¸Ģéĥ¨": 4710,
      "æľĪåĪĿ": 4711,
      "é¢Ī": 4712,
      "åįĹæĸ¹": 4713,
      "åı¦ä¸Ģä¸ª": 4714,
      "å°Ĩä¼ļ": 4715,
      "ate": 4716,
      "åıł": 4717,
      "æ¹ĺ": 4718,
      "ãģĵ": 4719,
      "400": 4720,
      "çº·": 4721,
      "çĽĨ": 4722,
      "è¡ĮæĶ¿åĮºåĪĴ": 4723,
      "æıŃ": 4724,
      "AT": 4725,
      "az": 4726,
      "åĨ¢": 4727,
      "éĥ¨çļĦ": 4728,
      "é»Ħèī²": 4729,
      "æī¾åĪ°": 4730,
      "è¥¿æ´ĭ": 4731,
      "åĨħéĺģ": 4732,
      "çģ«å±±": 4733,
      "ç»ıçĲĨ": 4734,
      "å¤ªéĥİ": 4735,
      "èīºäºº": 4736,
      "åĬłåĪ©": 4737,
      "çªģçĦ¶": 4738,
      ")ãĢģ": 4739,
      "åĬ©çĲĨ": 4740,
      "éĻįä½İ": 4741,
      "æĤ£èĢħ": 4742,
      "æĶ¹åĲįä¸º": 4743,
      "ç¡«": 4744,
      "åĲ¾": 4745,
      "ä¸ĵå®¶": 4746,
      "ç¼ºä¹ı": 4747,
      "éĢ¢": 4748,
      "ä¸ĭæĿ¥": 4749,
      "åłĨ": 4750,
      "é©¬æĭī": 4751,
      "åĶĲæľĿ": 4752,
      "åįİçĽĽ": 4753,
      "æĸĭ": 4754,
      "æĵįä½ľ": 4755,
      "å¤§å¤«": 4756,
      "ĠéŁ³ä¹Ĳ": 4757,
      "ä¸¾è¡ĮçļĦ": 4758,
      "èĬĤåº¦ä½¿": 4759,
      "é©¬å°Ķ": 4760,
      "è¥Ħ": 4761,
      "è±¡å¾ģ": 4762,
      "ä»ķ": 4763,
      "çĿ¡": 4764,
      "Ġæľī": 4765,
      "å§»": 4766,
      "87": 4767,
      "61": 4768,
      "å±±åĮº": 4769,
      "ina": 4770,
      "å·ŀåºľ": 4771,
      "åŃ¦å£«": 4772,
      "æĪĳçļĦ": 4773,
      "æ¢¨": 4774,
      "è£ħé¥°": 4775,
      "èĲ¨æĸ¯": 4776,
      "åľ¨åħ¶": 4777,
      "èĭĳ": 4778,
      "æĸĩåŃĹ": 4779,
      "é³Ħ": 4780,
      "æĤī": 4781,
      "ä¼°è®¡": 4782,
      "åįİçĽĽé¡¿": 4783,
      "å¾·åįİ": 4784,
      "è®¿éĹ®": 4785,
      "æīĢå±ŀçļĦ": 4786,
      "âĶĢ": 4787,
      "å¨ģèĥģ": 4788,
      "å¤§åŃĹ": 4789,
      "å¦Ļ": 4790,
      "åįĳ": 4791,
      "Ġå±±": 4792,
      "Ġæµ·": 4793,
      "ç¯®çĲĥ": 4794,
      "æ·»": 4795,
      "ä¼Ĭæĸ¯åħ°": 4796,
      "ä¸ĩç¾İåħĥ": 4797,
      "æ±Ŀ": 4798,
      "èı²å¾ĭ": 4799,
      "éĢĴ": 4800,
      "åħ¨çº¿": 4801,
      "çļĦåĲĮ": 4802,
      "ä¸»åľº": 4803,
      "éĺŁéķ¿": 4804,
      "å¦Ĥä½ķ": 4805,
      "èı²å¾ĭå®¾": 4806,
      "69": 4807,
      "èĢĹ": 4808,
      "åĬłå·ŀ": 4809,
      "èĥ½éĩı": 4810,
      "åłª": 4811,
      "ç»Īäºİ": 4812,
      "ç¥ł": 4813,
      "ç§ĺå¯Ĩ": 4814,
      "æĦĪ": 4815,
      "è¾¾æĪĲ": 4816,
      "åįĥç±³": 4817,
      "éĻ¢éķ¿": 4818,
      "ä¸Ģçº§": 4819,
      "æĸ©": 4820,
      "é»Ħéĩĳ": 4821,
      "èģĮä¸ļçĶŁæ¶¯": 4822,
      "oy": 4823,
      "éĻĦè¿ĳçļĦ": 4824,
      "çļĦäºĭ": 4825,
      "æľĢè¿ĳ": 4826,
      "å¼Ģè®¾": 4827,
      "è¡¨æĺİ": 4828,
      "éĨĩ": 4829,
      "ä¸Ĭæľī": 4830,
      "å½±è§Ĩ": 4831,
      "ä¿¡ä»°": 4832,
      "å¹´é¾Ħ": 4833,
      "èĤł": 4834,
      "æĸĲ": 4835,
      "ä¸¤æ¬¡": 4836,
      "è£ħçĶ²": 4837,
      "81": 4838,
      "ä¼¯çĪµ": 4839,
      "1982": 4840,
      "åĵ¥ä¼¦": 4841,
      "åıĳçĶµ": 4842,
      "Ġ2003": 4843,
      "IC": 4844,
      "å¸ĥèİ±": 4845,
      "84": 4846,
      "1000": 4847,
      "ç»ĻäºĪ": 4848,
      "è´´": 4849,
      "ç¨ĭåºı": 4850,
      "å¤įæĿĤ": 4851,
      "æĶ¿åħļ": 4852,
      "çļĦéĩįè¦ģ": 4853,
      "å°¹": 4854,
      "éº¦åħĭ": 4855,
      "çİ²": 4856,
      "ç¥ŀè¯Ŀ": 4857,
      "åħĨ": 4858,
      "ä½ıå®ħ": 4859,
      "ç¤¾ä¼ļä¸»ä¹ī": 4860,
      "ä¼ļéķ¿": 4861,
      "èµĭ": 4862,
      "åĩłä¸ª": 4863,
      "è¡¨è¾¾": 4864,
      "åħīç»ª": 4865,
      "æĵİ": 4866,
      "åįģå¤§": 4867,
      "éĻĦå±ŀ": 4868,
      "å¥Ķ": 4869,
      "arl": 4870,
      "æĥŁ": 4871,
      "åİĭåĬĽ": 4872,
      "åĪĨç¦»": 4873,
      "éĵŃ": 4874,
      "æ³¡": 4875,
      "æĹ¶ä»»": 4876,
      "éĤĳ": 4877,
      "é©¾é©¶": 4878,
      "sh": 4879,
      "ç»ıéªĮ": 4880,
      "æ°ĳéĹ´": 4881,
      "ç©ºæ°Ķ": 4882,
      "åľĨå½¢": 4883,
      "çļĦåĦ¿åŃĲ": 4884,
      "ãģĮ": 4885,
      "à¤": 4886,
      "åľºæ¯ĶèµĽ": 4887,
      "éĩĳçīĮ": 4888,
      "å¸ĪèĮĥ": 4889,
      "åįłåľ°": 4890,
      "te": 4891,
      "èĬĴ": 4892,
      "æ¶Ĥ": 4893,
      "ç»ĦæĪĲçļĦ": 4894,
      "è¾½å®ģ": 4895,
      "å£°éŁ³": 4896,
      "æĪĲéĥ½": 4897,
      "åıĺå¾Ĺ": 4898,
      "ä¸Ĭæµ·å¸Ĥ": 4899,
      "è¯·æ±Ĥ": 4900,
      "ton": 4901,
      "åĽ½éģĵ": 4902,
      "ç¨į": 4903,
      "ç©´": 4904,
      "æ´Ľåħĭ": 4905,
      "åľ¨ä¸Ģ": 4906,
      "å±ķè§Ī": 4907,
      "è¶³çĲĥè¿ĲåĬ¨åĳĺ": 4908,
      "åĸľåī§": 4909,
      "è®¨è®º": 4910,
      "å°ıåŀĭ": 4911,
      "æ´ĽæĿī": 4912,
      "ç®Ģåįķ": 4913,
      "Ġå½ĵ": 4914,
      "èģĶç³»": 4915,
      "èįĨ": 4916,
      "çīĻåĪ©": 4917,
      "å¤§èģĶçĽŁ": 4918,
      "åħ¬äº¤": 4919,
      "æĹłçº¿çĶµè§Ĩ": 4920,
      "è´Ńä¹°": 4921,
      "å¯¸": 4922,
      "èĤ¢": 4923,
      "æĹħè¡Į": 4924,
      "åĮĪçīĻåĪ©": 4925,
      "ib": 4926,
      "ç¬¬åħ«": 4927,
      "åľ¨ä¸ŃåĽ½": 4928,
      "æĦıå¤ĸ": 4929,
      "ä»Ĩ": 4930,
      "67": 4931,
      "é¸Ń": 4932,
      "çº¤": 4933,
      "çĲĨäºĭ": 4934,
      "æ´ĽæĿīçŁ¶": 4935,
      "å¹¶å°Ĩ": 4936,
      "Ġåı°æ¹¾": 4937,
      "ä¸Ľ": 4938,
      "æ¼ĶåĶ±ä¼ļ": 4939,
      "åİ¢": 4940,
      "çī¹éĩĮ": 4941,
      "ĠæŀĹ": 4942,
      "è¯ģåĪ¸": 4943,
      "é³ŀ": 4944,
      "å¤§å¸Ī": 4945,
      "åĬłæĭī": 4946,
      "èĻ¹": 4947,
      "çłĤ": 4948,
      "åıĳçİ°äºĨ": 4949,
      "ä¸Ĭå¸Ĥ": 4950,
      "æ£ĴçĲĥ": 4951,
      "åľ¨è¯¥": 4952,
      "ãĤŃ": 4953,
      "ä»ĸä¸İ": 4954,
      "è¥¿æĸ¹": 4955,
      "éĴĪå¯¹": 4956,
      "åľ°åĽ¾": 4957,
      "æĸĩçĮ®": 4958,
      "è¿ħéĢŁ": 4959,
      "éľĢæ±Ĥ": 4960,
      "In": 4961,
      "æĹ¥æľŁ": 4962,
      "çķĶ": 4963,
      "ary": 4964,
      "è¾ĥä¸º": 4965,
      "Ġæ°´": 4966,
      "çĪ·": 4967,
      "èĸĩ": 4968,
      "å¹¿ä¸ľçľģ": 4969,
      "63": 4970,
      "éĹ¸": 4971,
      "æģĲé¾Ļ": 4972,
      "å¤ļå¹´": 4973,
      "éļ¶å±ŀ": 4974,
      "çľŁæŃ£": 4975,
      "ç»ĪçĤ¹": 4976,
      "èĢĥåı¤": 4977,
      "çļĦä¸Ń": 4978,
      "å¯¹æĸ¹": 4979,
      "èĲ¥è¿Ĳ": 4980,
      "åħ¶å®ŀ": 4981,
      "æľĢå¤ļ": 4982,
      "ä¹īå¤§åĪ©": 4983,
      "ä»»åĳ½ä¸º": 4984,
      "çī¹èī²": 4985,
      "èĢĲ": 4986,
      "åĲŀ": 4987,
      "åıĤåĬłäºĨ": 4988,
      "æ¸Ĭ": 4989,
      "äººåı£æķ°éĩı": 4990,
      "çĶŁæĢģ": 4991,
      "é¸Łç±»": 4992,
      "é¡¾éĹ®": 4993,
      "çŃ¾çº¦": 4994,
      "çľģéģĵåı°": 4995,
      "çļĦä¸¤": 4996,
      "æĪĺå£«": 4997,
      "æłı": 4998,
      "æĽ´åĬł": 4999,
      "ï¼ħ": 5000,
      "çļĦæ°´": 5001,
      "èģĺ": 5002,
      "éĿĴå²Ľ": 5003,
      "æĤ²": 5004,
      "ç»Ħå»º": 5005,
      "åĴĸ": 5006,
      "å®°": 5007,
      "å»¶éķ¿": 5008,
      "å¼ĹæľĹ": 5009,
      "åĽºå®ļ": 5010,
      "åįģä¸Ģå¹´": 5011,
      "åı¯è¾¾": 5012,
      "æŀĦéĢł": 5013,
      "ç§»æ°ĳ": 5014,
      "ind": 5015,
      "è½¬ç§»": 5016,
      "éĢĢä¼ĳ": 5017,
      "åŁİéķĩ": 5018,
      "åĳ¨å¹´": 5019,
      "çĵ¶": 5020,
      "ĠçĻ½": 5021,
      "åĲ§": 5022,
      "ä¸ºæŃ¢": 5023,
      "å¯¨": 5024,
      "åıĳåĬ¨æľº": 5025,
      "åħĭæĭī": 5026,
      "120": 5027,
      "ĠâĢĵ": 5028,
      "ä¼łæĴŃ": 5029,
      "ä»·æł¼": 5030,
      "å¼ķæĵİ": 5031,
      "Ġ2000": 5032,
      "ug": 5033,
      "çĽ¸æ¯Ķ": 5034,
      "åı²ä¸Ĭ": 5035,
      "å°±ä¼ļ": 5036,
      "çļĦå¥³åĦ¿": 5037,
      "èĤ¤": 5038,
      "èº«ä¸º": 5039,
      "èµĦäº§": 5040,
      "éĥ¨å°ļä¹¦": 5041,
      "æķĻå®Ĺ": 5042,
      "1979": 5043,
      "è´£ä»»": 5044,
      "ç¨£": 5045,
      "æ³¢æĸ¯": 5046,
      "æ²¿éĿ©": 5047,
      "åįģæľĪ": 5048,
      "end": 5049,
      "å¤ĸåĽ½": 5050,
      "å¸ĥå°Ķ": 5051,
      "æ¶Īæģ¯": 5052,
      "æİª": 5053,
      "è¿Ļæ¬¡": 5054,
      "ohn": 5055,
      "æĪĺéĺŁ": 5056,
      "åĢº": 5057,
      "éĦĤ": 5058,
      "å¹´åºķ": 5059,
      "çıĢ": 5060,
      "ç»ĻäºĨ": 5061,
      "èģĶåĲĪåĽ½": 5062,
      "åĽłç´ł": 5063,
      "è°Ń": 5064,
      "åĨ¬åŃ£": 5065,
      "éĥ¨èĲ½": 5066,
      "Ġè¡ĮæĶ¿": 5067,
      "æĬķéĻį": 5068,
      "æ°¨": 5069,
      "åıĹæ¬¢è¿İ": 5070,
      "åħ³éĹŃ": 5071,
      "åĪ¶çļĦ": 5072,
      "é¢Ĩè¢ĸ": 5073,
      "åħ³æ³¨": 5074,
      "èĢ¶ç¨£": 5075,
      "ä¹ĺå®¢": 5076,
      "ãĤª": 5077,
      "åĬĿ": 5078,
      "åĲĽä¸»": 5079,
      "åĪ·": 5080,
      "æĸĩç«ł": 5081,
      "åĪ¶çīĩ": 5082,
      "æĶ¯æı´": 5083,
      "èħĶ": 5084,
      "çľŁå®ŀ": 5085,
      "eb": 5086,
      "ä¸ĭåįĪ": 5087,
      "éĹ´çļĦ": 5088,
      "æŃ£å¸¸": 5089,
      "åħ¬æ°ĳ": 5090,
      "çĶµåĬĽæľºè½¦": 5091,
      "ath": 5092,
      "åı¯èĥ½ä¼ļ": 5093,
      "å¹´åĪ°": 5094,
      "ä¼ª": 5095,
      "ust": 5096,
      "èĴĭ": 5097,
      "ä¹¡éģĵ": 5098,
      "æĸ¯é¡¿": 5099,
      "èĤº": 5100,
      "åĪĹåħ¥": 5101,
      "åĽĬ": 5102,
      "ä¿®å»º": 5103,
      "ç¾½æ¯ĽçĲĥ": 5104,
      "å¯¹æĬĹ": 5105,
      "åīįçļĦ": 5106,
      "å¾ĭå¸Ī": 5107,
      "çĶ«": 5108,
      "å¹¶æŃ¢äºİ": 5109,
      "1981": 5110,
      "åħ´è¶£": 5111,
      "åĪĽå»º": 5112,
      "ç¬¬äºĮæ¬¡ä¸ĸçķĮå¤§æĪĺ": 5113,
      "ä¸Ģæ®µ": 5114,
      "åĬ«": 5115,
      "ç¡®è®¤": 5116,
      "åĢĻéĢī": 5117,
      "Ġæĺ¯": 5118,
      "æĪĺçķ¥": 5119,
      "ä¹¦ç±į": 5120,
      "çļĦåĲİ": 5121,
      "å¼ķåıĳ": 5122,
      "å¼ĵ": 5123,
      "1978": 5124,
      "åĨĽåĽ¢": 5125,
      "äºļç§į": 5126,
      "èģĮåĬ¡": 5127,
      "Ð²": 5128,
      "çº¦ä¸º": 5129,
      "çĪµå£«": 5130,
      "äºĨè§£": 5131,
      "ç§ģäºº": 5132,
      "ach": 5133,
      "åľŃ": 5134,
      "é¦ĸåħĪ": 5135,
      "è´µå·ŀ": 5136,
      "Ġ17": 5137,
      "æī«": 5138,
      "èĩªæĿĢ": 5139,
      "ãĤ¨": 5140,
      "ç¢§": 5141,
      "è¾¾å°Ķ": 5142,
      "åįģä¹Ŀ": 5143,
      "éĴ»": 5144,
      "ä¸İåħ¶ä»ĸ": 5145,
      "æĶ¶èĹı": 5146,
      "å°¼äºļå·ŀ": 5147,
      "åıĳæĺİ": 5148,
      "èĤ¿": 5149,
      "å¹¶ä»¥": 5150,
      "Ġä¸º": 5151,
      "çĶŁåŃĺ": 5152,
      "åĳĬè¯ī": 5153,
      "æĺİæľĿæĶ¿æ²»äººçī©": 5154,
      "Ġ0": 5155,
      "èľ¥": 5156,
      "Ġä¸ªäºº": 5157,
      "ä¸»æĮģäºº": 5158,
      "å®ªæ³ķ": 5159,
      "æľīæīĢ": 5160,
      "æĸĩä»¶": 5161,
      "ĠAl": 5162,
      "AC": 5163,
      "æī¶": 5164,
      "éķ¿åº¦": 5165,
      "é¢ĨåľŁ": 5166,
      "çŃ¾ç½²": 5167,
      "çŃīçŃī": 5168,
      "æ£ķ": 5169,
      "Ø§": 5170,
      "çļĦéģĵè·¯": 5171,
      "ãĤ³": 5172,
      "æµĭéĩı": 5173,
      "ä½ĵèĤ²åľº": 5174,
      "å¤§åį«": 5175,
      "åĮĸåĲĪçī©": 5176,
      "èľĢ": 5177,
      "çİ»çĴĥ": 5178,
      "ä½įäºİæ³ķåĽ½": 5179,
      "æŁ¥çĲĨ": 5180,
      "è¿ĲçĶ¨": 5181,
      "å®īä¸ľ": 5182,
      "éĤª": 5183,
      "èĭıä¸¹": 5184,
      "Ġ11": 5185,
      "æĮĸ": 5186,
      "å¤§éĺª": 5187,
      "ä¸°å¯Į": 5188,
      "è¾ĸåĮº": 5189,
      "åŃĹæ¯į": 5190,
      "Ġå·´": 5191,
      "åķ¡": 5192,
      "åīª": 5193,
      "åĲįä¹ī": 5194,
      "æłĭ": 5195,
      "äº¦æĺ¯": 5196,
      "Ġåį¡": 5197,
      "éĹ²": 5198,
      "å¯¹è±¡": 5199,
      "ect": 5200,
      "JR": 5201,
      "åħĭç½Ĺ": 5202,
      "æĽ²çĽ®": 5203,
      "åĮĹæĸ¹": 5204,
      "åį³ä½¿": 5205,
      "çĶµèĦĳ": 5206,
      "çŁŃæľŁ": 5207,
      "èĮħ": 5208,
      "èĭ¯": 5209,
      "ç¦ħ": 5210,
      "ĠäºĮ": 5211,
      "å·¥åħ·": 5212,
      "çļĦæĹ¶éĹ´": 5213,
      "ann": 5214,
      "åĽ½åĬ¡éĻ¢": 5215,
      "åĽĽå·Ŀçľģ": 5216,
      "éļľç¢į": 5217,
      "çŁ¢": 5218,
      "åİŁåŃĲ": 5219,
      "éºŁ": 5220,
      "åĪ©æĸ¯": 5221,
      "98": 5222,
      "æ½ľèīĩ": 5223,
      "èĩªæ²»åĮº": 5224,
      "ç«ĭæ³ķ": 5225,
      "å®ĥæĺ¯": 5226,
      "å¹³åİŁ": 5227,
      "ff": 5228,
      "çĽ¸ä¿¡": 5229,
      "è®¤è¯Ĩ": 5230,
      "æĿĥåĬĽ": 5231,
      "1955": 5232,
      "ä»¥ä¸º": 5233,
      "è§Ĥæµĭ": 5234,
      "åħ¬å¼ĢèµĽ": 5235,
      "åħ¬æĸ¤": 5236,
      "å§ĳ": 5237,
      "æĽ´å¤ļ": 5238,
      "Î±": 5239,
      "ä¸¤ä¾§": 5240,
      "åį«è§Ĩ": 5241,
      "æĴ¤éĶĢ": 5242,
      "åįĩä¸º": 5243,
      "åıĳåĩº": 5244,
      "æķ´ä½ĵ": 5245,
      "å¾ĹåĲį": 5246,
      "ä¿ĥè¿Ľ": 5247,
      "å¹´æĹ¶": 5248,
      "ä¹ĭå¥³": 5249,
      "åĲ¹": 5250,
      "ä¸İåħ¶": 5251,
      "æĬ±": 5252,
      "æĿŃå·ŀ": 5253,
      "è·¯æ®µ": 5254,
      "æı¡": 5255,
      "ä»ĬæĹ¥": 5256,
      "æĬķæīĭ": 5257,
      "å¯ĵ": 5258,
      "çļĦå·¥ä½ľ": 5259,
      "éĽį": 5260,
      "æµĻæ±Łçľģ": 5261,
      "Ġèį£èªī": 5262,
      "å®ĺèĩ³": 5263,
      "èĢģå¸Ī": 5264,
      "ç¨»": 5265,
      "å±Ī": 5266,
      "æĳĨ": 5267,
      "å¤©åłĤ": 5268,
      "è¯±": 5269,
      "å¾·æĭī": 5270,
      "è°¦": 5271,
      "ĠSh": 5272,
      "éģĵåħī": 5273,
      "æ¯ķä¸ļåĲİ": 5274,
      "è¿¦": 5275,
      "åı¤åħ¸": 5276,
      "æ¿ĳ": 5277,
      "äº¿ç¾İåħĥ": 5278,
      "èĵĿèī²": 5279,
      "ç²¹": 5280,
      "å¼Ģå·¥": 5281,
      "ãĤĤ": 5282,
      "çļĦåħ³ç³»": 5283,
      "çĶ»å®¶": 5284,
      "Ġ2002": 5285,
      "1956": 5286,
      "ç§°åı·": 5287,
      "çĽ¸äºĴ": 5288,
      "æľįå½¹": 5289,
      "çİ°åľ¨çļĦ": 5290,
      "èĪŁ": 5291,
      "ond": 5292,
      "HK": 5293,
      "é¢ĩ": 5294,
      "å¯¹å¤ĸ": 5295,
      "æĻ®æŁ¥": 5296,
      "å·®å¼Ĥ": 5297,
      "åĨķ": 5298,
      "Ġ2001": 5299,
      "æĻ´": 5300,
      "èµĦéĩĳ": 5301,
      "æĭ±": 5302,
      "èĤĸ": 5303,
      "å½ķéŁ³": 5304,
      "çķĻä¸ĭ": 5305,
      "ct": 5306,
      "è¤": 5307,
      "åĬ¿åĬĽ": 5308,
      "æĢķ": 5309,
      "éŁµ": 5310,
      "èĤ¡ä»½æľīéĻĲåħ¬åı¸": 5311,
      "çĶľ": 5312,
      "çľģçļĦä¸Ģä¸ª": 5313,
      "ç¼ħçĶ¸": 5314,
      "ĠæĹ¥": 5315,
      "æ°¯": 5316,
      "ãĤĮ": 5317,
      "ä»ĸäºİ": 5318,
      "è°Ĭ": 5319,
      "é£İéĻ©": 5320,
      "éĽĩ": 5321,
      "çľł": 5322,
      "å©ļå§»": 5323,
      "çº¿è·¯åı£": 5324,
      "è®¡ç®Ĺæľº": 5325,
      "92": 5326,
      "ç§ĳåŃ¦å®¶": 5327,
      "èħ¿": 5328,
      "1958": 5329,
      "ä¸ĭéĻį": 5330,
      "ä¸ĸçķĮä¸Ĭ": 5331,
      "Ġ\"": 5332,
      "æ¯ħ": 5333,
      "åħ¬ä¼Ĺ": 5334,
      "å¹´åĪĿ": 5335,
      "å°¼å°Ķ": 5336,
      "ä½Ľç½Ĺ": 5337,
      "ST": 5338,
      "å±±åİ¿": 5339,
      "ä½ĨçĶ±äºİ": 5340,
      "æ´¾éģ£": 5341,
      "è¢ĭ": 5342,
      "åħ¬åħĥåīį": 5343,
      "è¹Ī": 5344,
      "æŃ£æľĪ": 5345,
      "éĢĢåĩº": 5346,
      "Ġæķħäºĭ": 5347,
      "åŁĭ": 5348,
      "äºĭå®ŀ": 5349,
      "ä¸Ńè¢«": 5350,
      "æĸ¹è¨Ģ": 5351,
      "éĺ³å¸Ĥ": 5352,
      "ĠçĽ¸åħ³": 5353,
      "åĮĹç¾İ": 5354,
      "äºĶæľĪ": 5355,
      "éĴ¢çĲ´": 5356,
      "å£«é¡¿": 5357,
      "åį°å°¼": 5358,
      "ç½ĳçĲĥ": 5359,
      "æ±Łèĭıçľģ": 5360,
      "ä¸ºäºº": 5361,
      "æ¯Ķä¾ĭ": 5362,
      "ive": 5363,
      "ÃĹ": 5364,
      "ä»»èģĮ": 5365,
      "æ·ĳ": 5366,
      "åıĤè°ĭ": 5367,
      "å¼ºçĥĪ": 5368,
      "èīºæľ¯å®¶": 5369,
      "éĥ¨çĶµå½±": 5370,
      "å¤§åŃ¦çļĦ": 5371,
      "æ¼ł": 5372,
      "çŁ³æ²¹": 5373,
      "çľģåĴĮ": 5374,
      "ç¦ģæŃ¢": 5375,
      "åŃķ": 5376,
      "ç»³": 5377,
      "è½¯ä»¶": 5378,
      "å½¢çĬ¶": 5379,
      "åĵ¥ä¼¦æ¯Ķäºļ": 5380,
      "æĹ§å¸Ĥéķĩ": 5381,
      "æ£ĢæŁ¥": 5382,
      "è·Łéļı": 5383,
      "åį±æľº": 5384,
      "çĺ¤": 5385,
      "1949": 5386,
      "ä¼ĺåĬ¿": 5387,
      "ä¸įæķĮ": 5388,
      "é©¬æĸ¯": 5389,
      "æĶ¹åĸĦ": 5390,
      "é¾Ļç§ĳ": 5391,
      "ä¹Ŀé¾Ļ": 5392,
      "ier": 5393,
      "ãĢľ": 5394,
      "èģª": 5395,
      "è´¼": 5396,
      "åĲįäºº": 5397,
      "æķ¢": 5398,
      "ĠæĿ¨": 5399,
      "åįķåħĥ": 5400,
      "èħĵ": 5401,
      "éħįåĲĪ": 5402,
      "è¯ģæį®": 5403,
      "iz": 5404,
      "97": 5405,
      "éģµ": 5406,
      "ç¥Ĳ": 5407,
      "å¯Įå£«": 5408,
      "Ar": 5409,
      "ä¸Ģå®ļ": 5410,
      "æĵħ": 5411,
      "å®īæīĵ": 5412,
      "æ¶Īå¤±": 5413,
      "Ġä»¥ä¸ĭ": 5414,
      "çķĻåľ¨": 5415,
      "06": 5416,
      "å¤¹": 5417,
      "ä¸įä»ħ": 5418,
      "Ġg": 5419,
      "æİĴè¡Į": 5420,
      "è¢«è¿«": 5421,
      "é£ŁæĢ§": 5422,
      "ä¼½": 5423,
      "çĲª": 5424,
      "æħķå®¹": 5425,
      "é¦ĸæĴŃ": 5426,
      "å¥³çİĭ": 5427,
      "çī¹æĭī": 5428,
      "åįĩçº§": 5429,
      "çļĦå¸Ĥéķĩ": 5430,
      "å¤©çļĦ": 5431,
      "ä¸īæľĪ": 5432,
      "éĩįéĩı": 5433,
      "ç¿Į": 5434,
      "ç¦»åŃĲ": 5435,
      "éĺµå®¹": 5436,
      "çłĸ": 5437,
      "çĤ¼": 5438,
      "åį³ä½į": 5439,
      "æįŁå¤±": 5440,
      "å¯¼å¼¹": 5441,
      "å°¿": 5442,
      "éĤ£äºĽ": 5443,
      "æ°ĳä¸»åħļ": 5444,
      "ä¸īåĽ½": 5445,
      "å¸¦æľī": 5446,
      "ung": 5447,
      "çļĦæĪĲåĳĺ": 5448,
      "é¦ĸä¸ª": 5449,
      "ĠAr": 5450,
      "åºŁéĻ¤": 5451,
      "çĶĺèĤĥ": 5452,
      "åħĭå°Ķ": 5453,
      "çİ°ä»Ĭ": 5454,
      "åĿĩä¸º": 5455,
      "ix": 5456,
      "å·¡åĽŀ": 5457,
      "ãģ§": 5458,
      "çļĦåıĳå±ķ": 5459,
      "æĢĸ": 5460,
      "æĽ´ä¸º": 5461,
      "ãĤ¤ãĥ": 5462,
      "çļĦè®¾è®¡": 5463,
      "çĶ¨æĪ·": 5464,
      "æıĲåĪ°": 5465,
      "æł¹å»·": 5466,
      "æĺ¯é¦Ļæ¸¯": 5467,
      "æ¬§åħĥ": 5468,
      "è°¥": 5469,
      "æ»¡è¶³": 5470,
      "åĳ¨æľŁ": 5471,
      "çļĦåİĨåı²": 5472,
      "å¤§å¤ļ": 5473,
      "åıĳèµ·": 5474,
      "çĤī": 5475,
      "æĥħæĬ¥": 5476,
      "éŃģ": 5477,
      "çĪĨçĤ¸": 5478,
      "åĮºéĹ´": 5479,
      "çī¹åħ°": 5480,
      "å¼ĹéĩĮ": 5481,
      "ational": 5482,
      "ç²¤è¯Ń": 5483,
      "èĥľåĩº": 5484,
      "æĻļä¸Ĭ": 5485,
      "è½°çĤ¸": 5486,
      "çļĦçĶµå½±": 5487,
      "å°Ķå¤«": 5488,
      "å¿§": 5489,
      "æ¶µ": 5490,
      "è©¹å§Ĩæĸ¯": 5491,
      "SA": 5492,
      "å¤©çĦ¶": 5493,
      "ä½ĵç³»": 5494,
      "å°Ŀè¯ķ": 5495,
      ")ï¼ļ": 5496,
      "ä¸ºæ³ķåĽ½": 5497,
      "è¾¹ç¼ĺ": 5498,
      "å¥¥è¿Ĳä¼ļ": 5499,
      "Ġåħ¨": 5500,
      "ä¸»äºĭ": 5501,
      "åįģä¸ĥ": 5502,
      "èĴĻçī¹": 5503,
      "éĽ¾": 5504,
      "çļĦæĥħåĨµä¸ĭ": 5505,
      "æº¯": 5506,
      "å¤ıä»¤": 5507,
      "åĴĸåķ¡": 5508,
      "éĢ¼": 5509,
      "ä¸Ĭä¸ĭ": 5510,
      "åĽĽæľĪ": 5511,
      "é¡·": 5512,
      "å¤©ä¸ĭ": 5513,
      "ç»´æĸ¯": 5514,
      "éĥİä¸Ń": 5515,
      "ä»¥åĮĹ": 5516,
      "ãģ£": 5517,
      "æĥ¯": 5518,
      "æ¼ĶåĮĸ": 5519,
      "çĽ´å¾Ħ": 5520,
      "èĥĨ": 5521,
      "å¤įåħ´": 5522,
      "1975": 5523,
      "æ±ª": 5524,
      "èĥĮé³į": 5525,
      "å·¥äºº": 5526,
      "CD": 5527,
      "ç¥¯": 5528,
      "åĮĹéŃı": 5529,
      "ä»£çĲĨ": 5530,
      "å´©": 5531,
      "1940": 5532,
      "åĬ³åĬ¨": 5533,
      "585": 5534,
      "çĽĳåĪ¶": 5535,
      "çŃ¾è®¢": 5536,
      "éĢīä¸º": 5537,
      "ä¼ĬæľĹ": 5538,
      "å¼ķåħ¥": 5539,
      "VD": 5540,
      "æ¸¯åı£": 5541,
      "é¤Ĳåİħ": 5542,
      "è¾¨": 5543,
      "æĬĵ": 5544,
      "åĪĨéħį": 5545,
      "ä¸»è¦ģæĺ¯": 5546,
      "å°ļæľª": 5547,
      "æ¶īåıĬ": 5548,
      "Ġn": 5549,
      "æ³¢ç½Ĺ": 5550,
      "çļĦçĪ¶äº²": 5551,
      "å®Ľ": 5552,
      "æĹ¶æľŁçļĦ": 5553,
      "èĬĿåĬł": 5554,
      "çĻ»éĻĨ": 5555,
      "åĬ¨è½¦": 5556,
      "ä¸ĥæľĪ": 5557,
      "èĬĿåĬłåĵ¥": 5558,
      "å¾·å°Ķ": 5559,
      "é¢Ħè®¡": 5560,
      "æĪĲå°±": 5561,
      "æľ¬åľŁ": 5562,
      "ish": 5563,
      "ä¼ļåĳĺ": 5564,
      "ä¸įæĺİ": 5565,
      "ĠåĪĨç±»": 5566,
      "åľ¨å¤§": 5567,
      "èĢĮè¨Ģ": 5568,
      "æīĭæľ¯": 5569,
      "è¥¿æĸ¯": 5570,
      "93": 5571,
      "å¯¹åºĶ": 5572,
      "å°¼åħĭ": 5573,
      "åľ¨æĹ¥æľ¬": 5574,
      "æµ·å¤ĸ": 5575,
      "è¥¿å®ī": 5576,
      "è¿ĻéĩĮ": 5577,
      "å·²æľī": 5578,
      "èĪŀè¹Ī": 5579,
      "1946": 5580,
      "SEE": 5581,
      "å®¶äºº": 5582,
      "éĩĬæĶ¾": 5583,
      "åħ±äº§åħļ": 5584,
      "Ġå®¶åºŃ": 5585,
      "å¿ĺ": 5586,
      "æİ§èĤ¡": 5587,
      "æĭ¿ä¸ĭ": 5588,
      "æµ·å³¡": 5589,
      "ãĤ£": 5590,
      "æ¡Ĳ": 5591,
      "åĪĨåĪ«ä¸º": 5592,
      "æİ¨è¿Ľ": 5593,
      "æĸ½å·¥": 5594,
      "ĠThe": 5595,
      "ç£·": 5596,
      "éĢĤåĲĪ": 5597,
      "åħ¥çĲĥ": 5598,
      "ãĤĴ": 5599,
      "å®ŀè¡Į": 5600,
      "åģľè½¦": 5601,
      "BN": 5602,
      "å¹³éĿ¢": 5603,
      "ãĥ£": 5604,
      "è¯´æĺİ": 5605,
      "å¸¦æĿ¥": 5606,
      "æĺ¯ä¸ª": 5607,
      "å¸Ĥéķ¿": 5608,
      "å®ļå±ħ": 5609,
      "åİ¿éģĵ": 5610,
      "è¶³åįı": 5611,
      "è¥¿ä¾§": 5612,
      "çĮªç¬¼": 5613,
      "ee": 5614,
      "ĠåĲİ": 5615,
      "æľµ": 5616,
      "ĠSch": 5617,
      "è¶³çĲĥèģĶèµĽ": 5618,
      "æĭ¼": 5619,
      "äºĮæľĪ": 5620,
      "éĵİ": 5621,
      "æ¡ĵ": 5622,
      "one": 5623,
      "çĮªç¬¼èįī": 5624,
      "Ġh": 5625,
      "éľŀ": 5626,
      "åħŃæľĪ": 5627,
      "è®ºæĸĩ": 5628,
      "625": 5629,
      "ç§°ä½ľ": 5630,
      "èĲ¨å°Ķ": 5631,
      "ÑĮ": 5632,
      "åĪĨæĶ¯": 5633,
      "ĠCom": 5634,
      "1941": 5635,
      "Ð´": 5636,
      "éĩĩåıĸ": 5637,
      "æµĨ": 5638,
      "åħ«æľĪ": 5639,
      "åĩºéģĵ": 5640,
      "è·ĭ": 5641,
      "çĶµè½¦": 5642,
      "æ¸¸æ³³": 5643,
      "å¸Ĩ": 5644,
      "éĤ»è¿ĳ": 5645,
      "è¥¿åħ°": 5646,
      "Ġæľ¬é±¼": 5647,
      "ly": 5648,
      "1082": 5649,
      "æīĵç®Ĺ": 5650,
      "94": 5651,
      "ç¾İåĨĽ": 5652,
      "ç±³åħ°": 5653,
      "æ£Ģå¯ŁéĻ¢": 5654,
      "èĥº": 5655,
      "æĦıå¿Ĺ": 5656,
      "çĭŃ": 5657,
      "é¢Ĩåľ°": 5658,
      "281": 5659,
      "æ¯ĶåĪ©æĹ¶": 5660,
      "é¦ĸå¸Ń": 5661,
      "å¹´åĴĮ": 5662,
      "ä¸įåĪ°": 5663,
      "Mar": 5664,
      "ç±»çļĦ": 5665,
      "INSEE": 5666,
      "ç¼ĸåħ¥": 5667,
      "éĽ·æĸ¯": 5668,
      "åľ¨äºİ": 5669,
      "åĩºåĶ®": 5670,
      "åı¯ä»¥åľ¨": 5671,
      "åħ¼ä»»": 5672,
      "æ²³åįĹçľģ": 5673,
      "çĪ±å¾·åįİ": 5674,
      "çŃīçº§": 5675,
      "é£ŁçĶ¨": 5676,
      "éĺ»æŃ¢": 5677,
      "åĲ»": 5678,
      "æĬ«": 5679,
      "é©¬éĩĮ": 5680,
      "ç§įæ¤į": 5681,
      "çĪ¸": 5682,
      "æĦıè§ģ": 5683,
      "ä¾ĿçĦ¶": 5684,
      "ies": 5685,
      "éģ¥": 5686,
      "è±¹": 5687,
      "å®ģæ³¢": 5688,
      "åį±éĻ©": 5689,
      "çº¦çĳŁ": 5690,
      "èĿ¶": 5691,
      "å··": 5692,
      "äº¬éĥ½": 5693,
      "aur": 5694,
      "èĬĻ": 5695,
      "æģĲæĢĸ": 5696,
      "åİŁå§ĭ": 5697,
      "è§ĤçĤ¹": 5698,
      "æī©å¤§": 5699,
      "mer": 5700,
      "ĠçŁ³": 5701,
      "Ġåĳ¨": 5702,
      "æĹłäºº": 5703,
      "å·²è¢«": 5704,
      "å°Ĩé¢Ĩ": 5705,
      "å²Ľå±¿": 5706,
      "ith": 5707,
      "æ¯Ķå¦Ĥ": 5708,
      "çĽ¸éĤ»": 5709,
      "ä¼łåªĴ": 5710,
      "çİ°å®ŀ": 5711,
      "Ġç¬¬ä¸ī": 5712,
      "å§¿": 5713,
      "å¹¶ä¸İ": 5714,
      "ç¬¦åĲĪ": 5715,
      "è¾©": 5716,
      "èĬ¦": 5717,
      "åľ¨ä¸Ģèµ·": 5718,
      "ãĥķ": 5719,
      "å±±å¸Ĥ": 5720,
      "æĻ®é²ģ": 5721,
      "è§£æķ£": 5722,
      "å¿½": 5723,
      "åĲ«æľī": 5724,
      "é¥¼": 5725,
      "çº¬": 5726,
      "å¥³ä¸»è§Ĵ": 5727,
      "ç§¯æŀģ": 5728,
      "374": 5729,
      "åł¤": 5730,
      "ä¸»æķĻç»ĥ": 5731,
      "è®¾å®ļ": 5732,
      "éļıåį³": 5733,
      "é¼İ": 5734,
      "Sh": 5735,
      "ä¹¦éĻ¢": 5736,
      "Ġåı¤": 5737,
      "åįģäºĮæľĪ": 5738,
      "å¤§è¡Ĺ": 5739,
      "æľīèĳĹ": 5740,
      "æºĲèĩª": 5741,
      "æĲº": 5742,
      "çĪª": 5743,
      "å¸ĥæĶ¿": 5744,
      "ON": 5745,
      "æľīæľº": 5746,
      "æĭĸ": 5747,
      "ä¸ľä¾§": 5748,
      "æģ°": 5749,
      "å©´": 5750,
      "åĪĻä¸º": 5751,
      "ĠZ": 5752,
      "éĥģ": 5753,
      "åĳĺå·¥": 5754,
      "å·´å°Ķ": 5755,
      "ore": 5756,
      "1976": 5757,
      "æĸĩæĺİ": 5758,
      "æĿĢå®³": 5759,
      "ä¿®éģĵ": 5760,
      "âĢ§": 5761,
      "éĥ½çĿ£": 5762,
      "ĠçĶ±": 5763,
      "æĸĩèīº": 5764,
      "ç®¡çĲĨå±Ģ": 5765,
      "07": 5766,
      "ç§ĳå¤«": 5767,
      "å·¥ç¨ĭå¸Ī": 5768,
      "èĩĤ": 5769,
      "åĲīå°Ķ": 5770,
      "åľ¨é¦Ļæ¸¯": 5771,
      "è½©": 5772,
      "05": 5773,
      "æľ¬åľ°": 5774,
      "åĮĹæµ·éģĵ": 5775,
      "ãģĻ": 5776,
      "åĬŀäºĭ": 5777,
      "é¢ģå¥ĸåħ¸ç¤¼": 5778,
      "04": 5779,
      "æ¡Īä»¶": 5780,
      "çĬ¯ç½ª": 5781,
      "ä¹Łä¸į": 5782,
      "1972": 5783,
      "åĽ°éļ¾": 5784,
      "éĢ¸": 5785,
      "æ·³": 5786,
      "1930": 5787,
      "å¤§å°ı": 5788,
      "éĢļä¿¡": 5789,
      "åį¡æĸ¯": 5790,
      "å»ºçŃĳçī©": 5791,
      "æµİåįĹ": 5792,
      "ä¸ĬäºĨ": 5793,
      "å¾·çļĦ": 5794,
      "1973": 5795,
      "èĴ²": 5796,
      "æīĢæľīçļĦ": 5797,
      "æ²¼": 5798,
      "æĬ¥å¯¼": 5799,
      "åģ¿": 5800,
      "èıĬ": 5801,
      "600": 5802,
      "ä½įäºİä¸ŃåĽ½": 5803,
      "å°ĳå°Ĩ": 5804,
      "æĪĲçļĦ": 5805,
      "åħĭçļĦ": 5806,
      "åľ£ç»ı": 5807,
      "08": 5808,
      "æ¸ł": 5809,
      "ä½Ĩä»ĸ": 5810,
      "åį¢çĵ¦å°Ķ": 5811,
      "äººåı£æķ°éĩıä¸ºP": 5812,
      "ç«Ł": 5813,
      "ial": 5814,
      "å±ł": 5815,
      "1944": 5816,
      "ç²¾çģµ": 5817,
      "ick": 5818,
      "å®ł": 5819,
      "éĺ®": 5820,
      "æĪĲäºĨ": 5821,
      "åĲĪåĲĮ": 5822,
      "èĪ±": 5823,
      "1968": 5824,
      "æĪĲå¹´": 5825,
      "éķ¿æ±Ł": 5826,
      "å¯¹éĺµ": 5827,
      "éĩįå¤§": 5828,
      "çļĦç¬¬äºĮ": 5829,
      "æĹ¶åĢĻ": 5830,
      "ä»ĸè¿ĺ": 5831,
      "ãĥĨ": 5832,
      "æĮīå¯Ł": 5833,
      "ãĢĭ(": 5834,
      "å¤ªå®Ī": 5835,
      "AN": 5836,
      "æĪĲæľ¬": 5837,
      "éĺ¿æł¹å»·": 5838,
      "éĢĶä¸Ń": 5839,
      "bert": 5840,
      "åĩ½æķ°": 5841,
      "åº¶": 5842,
      "09": 5843,
      "æĢ¡": 5844,
      "è¤Ĳèī²": 5845,
      "å¯Ĩåº¦": 5846,
      "åĩ¶": 5847,
      "åħ¨éĿ¢": 5848,
      "èħĲ": 5849,
      "ä»¤äºº": 5850,
      "åĲ¸æĶ¶": 5851,
      "åĬªåĬĽ": 5852,
      "ae": 5853,
      "èĩĢ": 5854,
      "åºĦä¸º": 5855,
      "ä¸Ńåħ±": 5856,
      "æľŃ": 5857,
      "1965": 5858,
      "é¢ģåıĳ": 5859,
      "æİ¥å£¤çļĦå¸Ĥéķĩ": 5860,
      "2046": 5861,
      "æĸ°äºº": 5862,
      "å¤ıä»¤æĹ¶": 5863,
      "èĢĮä¸į": 5864,
      "äº«å¹´": 5865,
      "å®¶ä¸Ń": 5866,
      "éĻ¢å£«": 5867,
      "ç»´åŁĥ": 5868,
      "åĿł": 5869,
      "ä¹ĿæľĪ": 5870,
      "åĲİè¢«": 5871,
      "æľ¬ä½ľ": 5872,
      "åĵ¥åĵ¥": 5873,
      "å±Ģéķ¿": 5874,
      "å¿Ļ": 5875,
      "è¿Ļåº§": 5876,
      "å¨¶": 5877,
      "éĩıçļĦ": 5878,
      "è¶³çĲĥä¿±ä¹Ĳéĥ¨": 5879,
      "åľ¨ä»ĸ": 5880,
      "1974": 5881,
      "å¸¸è§ģçļĦ": 5882,
      "Ġç¥ŀ": 5883,
      "æķ²": 5884,
      "å¤©ä½¿": 5885,
      "iss": 5886,
      "æħİ": 5887,
      "ä¹ĲåĻ¨": 5888,
      "ä¼łæķĻ": 5889,
      "ox": 5890,
      "æĺ¯ä¸Ģåº§": 5891,
      "æĿ¯åĨłåĨĽ": 5892,
      "äº¤æį¢": 5893,
      "å»ºçŃĳå¸Ī": 5894,
      "çĶµè¯Ŀ": 5895,
      "å¸½": 5896,
      "åĮºä¸ºUTC": 5897,
      "ex": 5898,
      "1963": 5899,
      "éļ¾ä»¥": 5900,
      "åľºæĻ¯": 5901,
      "èĥ½æºĲ": 5902,
      "å®Įå·¥": 5903,
      "lay": 5904,
      "ĠåĲ´": 5905,
      "åİ¿çļĦ": 5906,
      "Ñĥ": 5907,
      "å¥ĭ": 5908,
      "ĠAn": 5909,
      "1959": 5910,
      "éĹ½": 5911,
      "çļĦæĹ¶åĮºä¸ºUTC": 5912,
      "INSEEå¸Ĥéķĩ": 5913,
      "æµ·åŁŁ": 5914,
      "å°Ħåĩ»": 5915,
      "åįļå£«åŃ¦ä½į": 5916,
      "å±±ä¸ľçľģ": 5917,
      "INSEEå¸Ĥéķĩç¼ĸçłģä¸ºP": 5918,
      "per": 5919,
      "Ð¹": 5920,
      "ç¤ģ": 5921,
      "å·¡æĬļ": 5922,
      "è½¨éģĵäº¤éĢļ": 5923,
      "Ġåħĥ": 5924,
      "ä¸ŃæľŁ": 5925,
      "æīģ": 5926,
      "åŃĲå¥³": 5927,
      "åģľéĿł": 5928,
      "åŁ¹åħ»": 5929,
      "éĤ®æĶ¿ç¼ĸçłģä¸ºP": 5930,
      "eam": 5931,
      "å¢ŀéķ¿": 5932,
      "å¦¹å¦¹": 5933,
      "rit": 5934,
      "Ġä¸ĭ": 5935,
      "áĢ": 5936,
      "Ġ16": 5937,
      "èĿł": 5938,
      "èİ·å¥ĸ": 5939,
      "èİ·èĥľ": 5940,
      "çļĦä½įç½®": 5941,
      "ãĤº": 5942,
      "æĤ¦": 5943,
      "æĶ»æīĵ": 5944,
      "åĽĽä¸ĸ": 5945,
      "ç¢Ł": 5946,
      "å¹´ç¾İåĽ½": 5947,
      "ä¿ĿéĻ©": 5948,
      "1954": 5949,
      "æķĮäºº": 5950,
      "å¤§å°ĨåĨĽ": 5951,
      "èĦ¸": 5952,
      "ĠåıĤèĢĥ": 5953,
      "1977": 5954,
      "åĤ¬": 5955,
      "å»ºç«ĭäºĨ": 5956,
      "éĿ¢ç§¯P": 5957,
      "èĩªèº«": 5958,
      "æĹ¶çļĦäººåı£æķ°éĩıä¸ºP": 5959,
      "éħįç½®": 5960,
      "ĠæľĢ": 5961,
      "æĭĨéĻ¤": 5962,
      "ä¸Ģåľº": 5963,
      "è¥¿åĮĹéĥ¨": 5964,
      "åĬłå¼º": 5965,
      "Ġ1999": 5966,
      "äº§çĶŁçļĦ": 5967,
      "åŁ¹è®Ń": 5968,
      "ç¹ģæ®ĸ": 5969,
      "åľ£æ¯į": 5970,
      "æľ«æľŁ": 5971,
      "æ¢µ": 5972,
      "åįİäºº": 5973,
      "åĪĽå§ĭ": 5974,
      "AM": 5975,
      "land": 5976,
      "çļĦç¥ŀ": 5977,
      "æĸ¯æĭīå¤«": 5978,
      "ç©ºä¸Ń": 5979,
      "å¾Ģå¾Ģ": 5980,
      "æĶ¶éĽĨ": 5981,
      "ĠåŃ¦æł¡": 5982,
      "çļ®èĤ¤": 5983,
      "æĹŃ": 5984,
      "åĽ½éĻħæľºåľº": 5985,
      "Ã¡": 5986,
      "æļĸ": 5987,
      "ace": 5988,
      "ï¼īï¼į": 5989,
      "ç½¢": 5990,
      "æł¼æĭī": 5991,
      "éĶĲ": 5992,
      "è¶³çĲĥéĺŁ": 5993,
      "1942": 5994,
      "Ġå¯¹": 5995,
      "ä¸įæ»¡": 5996,
      "èģĮä½į": 5997,
      "ĠUn": 5998,
      "ç¿ħ": 5999,
      "ä¸ľäº¬éĥ½": 6000,
      "æĪĸæĹ§å¸Ĥéķĩ": 6001,
      "ç¡®è¯Ĭ": 6002,
      "åı¸èģĮ": 6003,
      "çļĦåĽ½å®¶": 6004,
      "1962": 6005,
      "und": 6006,
      "èµĽä¸Ń": 6007,
      "éķ¿è¾¾": 6008,
      "ãĤ°": 6009,
      "å®´": 6010,
      "ç«Ļåİħ": 6011,
      "ä»İæŃ¤": 6012,
      "æĮģæľī": 6013,
      "éĶĢéĩı": 6014,
      "ä½ľåĩº": 6015,
      "å¾ªçİ¯": 6016,
      "èĮµ": 6017,
      "å¡ŀçº³": 6018,
      "ĠæŃ£": 6019,
      "ä¸ĢåĪĩ": 6020,
      "çŁ¥åºľ": 6021,
      "éģĩåĪ°": 6022,
      "AP": 6023,
      "SS": 6024,
      "å²©çŁ³": 6025,
      "è¿Ĳä½ľ": 6026,
      "è¯Ĺäºº": 6027,
      "éĢ»": 6028,
      "åĲĪåĶ±": 6029,
      "åĽŀå½Ĵ": 6030,
      "ä¿®æĶ¹": 6031,
      "å¼ĹéĽ·": 6032,
      "Ġæ¸¸æĪı": 6033,
      "åı¯è§ģ": 6034,
      "æ±ŁæĪ·": 6035,
      "1969": 6036,
      "å¿Į": 6037,
      "å°¼è¥¿äºļ": 6038,
      "éĢīåĮºä¸º": 6039,
      "ood": 6040,
      "å¸Ĥæ°ĳ": 6041,
      "äºĶåįģ": 6042,
      "åĲīæŀĹ": 6043,
      "æľºåĪ¶": 6044,
      "æĪĲçĨŁ": 6045,
      "åĪĨè£Ĥ": 6046,
      "ĠæľĪ": 6047,
      "ĠåĽ½éĻħ": 6048,
      "åľ°åĲį": 6049,
      "æ³ķæ¡Ī": 6050,
      "ern": 6051,
      "æīĢå±ŀçļĦçľģçº§": 6052,
      "è¯¥çľģä»½": 6053,
      "æīĢå±ŀçļĦçľģçº§éĢīåĮºä¸º": 6054,
      "å¤ļå°Ķ": 6055,
      "å¨ħ": 6056,
      "çĽ´éļ¶": 6057,
      "çłĶåıĳ": 6058,
      "è´§çī©": 6059,
      "ä¸ĭä»¤": 6060,
      "ç±³çļĦ": 6061,
      "é¾Ļæ±Ł": 6062,
      "æŃ»äºİ": 6063,
      "äº¤çķĮ": 6064,
      "æł¡åĽŃ": 6065,
      "çĪ±çļĦ": 6066,
      "é«ĺè¾¾": 6067,
      "ç©·": 6068,
      "å°ıå§Ĳ": 6069,
      "æ²³çķĶ": 6070,
      "èĽĻ": 6071,
      "ç¨Ģ": 6072,
      "çī¹åĪ«æĺ¯": 6073,
      "åĲĦèĩª": 6074,
      "åŃ£åĲİ": 6075,
      "Ġéĥĳ": 6076,
      "çļĦè¯Ŀ": 6077,
      "è¾Ĳå°Ħ": 6078,
      "çļĦåĲįåŃĹ": 6079,
      "ä¸ľåĮĹéĥ¨": 6080,
      "æĹ¶æ®µ": 6081,
      "åĮĹä¾§": 6082,
      "äºĶä¸ª": 6083,
      "æ»ķ": 6084,
      "å¦ĩå¥³": 6085,
      "Cl": 6086,
      "äº§åľ°": 6087,
      "ä¾ĽåºĶ": 6088,
      "1957": 6089,
      "ç©Ĩæĸ¯": 6090,
      "åĨĴéĻ©": 6091,
      "ä¿®å¤į": 6092,
      "ä¼Ĺå¤ļ": 6093,
      "91": 6094,
      "å¯ĩ": 6095,
      "çŁ©": 6096,
      "ãģ¤": 6097,
      "å¤ĦçļĦ": 6098,
      "åĪĨåĪ«æĺ¯": 6099,
      "åĴ¨": 6100,
      "å¤§è¥¿æ´ĭ": 6101,
      "Ġä¸»": 6102,
      "ä¸¤å¹´": 6103,
      "ç¢±": 6104,
      "å¼Ģä¸ļ": 6105,
      "æľºçļĦ": 6106,
      "æīĢå±ŀ": 6107,
      "æĪ¿å±ĭ": 6108,
      "æ£Ģæµĭ": 6109,
      "éĶĻè¯¯": 6110,
      "æĬ¼": 6111,
      "ĠçĶµè§Ĩåī§": 6112,
      "æŁ´æ²¹æľºè½¦": 6113,
      "åĬłåĪ©ç¦ı": 6114,
      "ä¸»è¦ģçļĦ": 6115,
      "ä¿ĦåĽ½": 6116,
      "ä¸ŃæľĢ": 6117,
      "åıĤèĢĥ": 6118,
      "å¥¹ä»¬": 6119,
      "èĹ»": 6120,
      "éĢīåĮº": 6121,
      "åī¯ä½¿": 6122,
      "éĵ¸": 6123,
      "1964": 6124,
      "æĺ¥ç§ĭ": 6125,
      "é¡ºåĪ©": 6126,
      "ä¸¤èĢħ": 6127,
      "åĲĳåįĹ": 6128,
      "ock": 6129,
      "æĹ¥äºİ": 6130,
      "æĥľ": 6131,
      "ç«ĭåį³": 6132,
      "ç§įæĹı": 6133,
      "ĠæĽ¾ç¥ĸ": 6134,
      "ãĢĤãĢĤ": 6135,
      "æĢ»çĽĳ": 6136,
      "att": 6137,
      "æİ¨èįĲ": 6138,
      "çīĻé½¿": 6139,
      "Ġè¯Ħä»·": 6140,
      "äººæ°ĳæ£Ģå¯ŁéĻ¢": 6141,
      "é¢Į": 6142,
      "åįĹä¾§": 6143,
      "äººæ°ĳå¸ģ": 6144,
      "ç¾İä¸½": 6145,
      "AK": 6146,
      "yl": 6147,
      "æĪĲéķ¿": 6148,
      "ç¬¬ä¹Ŀ": 6149,
      "æĢ§æł¼": 6150,
      "ç¢°": 6151,
      "è¯ºå¤«": 6152,
      "äººå·¥": 6153,
      "åŁİçļĦ": 6154,
      "1971": 6155,
      "æīĳ": 6156,
      "ED": 6157,
      "æĢ»è£ģ": 6158,
      "æ¡ĥåĽŃ": 6159,
      "åŁİåİ¿": 6160,
      "1952": 6161,
      "çŃĴ": 6162,
      "è½¦éģĵ": 6163,
      "çĲĨå·¥": 6164,
      "æĺŁç³»": 6165,
      "æĪĲç«ĭçļĦ": 6166,
      "æ´¾åĩº": 6167,
      "ä¸´åºĬ": 6168,
      "Ġæ°¸": 6169,
      "åĨĽå®ĺ": 6170,
      "è¾ħåĬ©": 6171,
      "çİ°åŃĺ": 6172,
      "éĤµ": 6173,
      "å¤ªåĲİ": 6174,
      "ãĤµ": 6175,
      "æİł": 6176,
      "Ġé»ĳ": 6177,
      "ä¸ºåħ¶": 6178,
      "æ»¨æµ·": 6179,
      "æŁĦ": 6180,
      "çľģçļĦä¸Ģä¸ªå¸Ĥéķĩ": 6181,
      "éĤ±": 6182,
      "æĳ§": 6183,
      "æ¡¥æ¢ģ": 6184,
      "1953": 6185,
      "åĨĽåĮº": 6186,
      "åı¤èĢģ": 6187,
      "éĤ£ä¹Ī": 6188,
      "ä»ĸä¸º": 6189,
      "åĲĳåĮĹ": 6190,
      "çªģçł´": 6191,
      "ä¾ĭåŃĲ": 6192,
      "1948": 6193,
      "ss": 6194,
      "èĢķ": 6195,
      "æĢ§èĥ½": 6196,
      "è¿ŀè½½": 6197,
      "æ¾Ħ": 6198,
      "äºĴçĽ¸": 6199,
      "é©¬ä¸ģ": 6200,
      "è¯¥çľģä»½ä¸ºæ³ķåĽ½": 6201,
      "mm": 6202,
      "æľ¬äºº": 6203,
      "èĤĿ": 6204,
      "æ¯ıå¤©": 6205,
      "åĲ¯åĬ¨": 6206,
      "ä¼łå¥ĩ": 6207,
      "ä¸īäºº": 6208,
      "æ³ķå®ĺ": 6209,
      "å¸ĥéĽ·": 6210,
      "æ³¢å£«é¡¿": 6211,
      "çĸ«æĥħ": 6212,
      "ĠèĻ½çĦ¶": 6213,
      "ä¸Ńä¹¦": 6214,
      "æĹ¬": 6215,
      "æĸĩåºĵ": 6216,
      "çģ«æĺŁ": 6217,
      "åĺīå®¾": 6218,
      "æĸ°è®¾": 6219,
      "æł¼å°Ķ": 6220,
      "å°¤åħ¶æĺ¯": 6221,
      "Ġå¾·": 6222,
      "æ´»è·ĥ": 6223,
      "äº²èĩª": 6224,
      "çłģå¤´": 6225,
      "sk": 6226,
      "èµĮ": 6227,
      "ä¾¨": 6228,
      "è¸¢": 6229,
      "åıĳæĮ¥": 6230,
      "å¼ıçļĦ": 6231,
      "èı©": 6232,
      "æĹ¥æŃ£å¼ı": 6233,
      "ãĢĭï¼ī": 6234,
      "å±±åı£": 6235,
      "å¹»æĥ³": 6236,
      "æĬĳåĪ¶": 6237,
      "ä»¥åįĹ": 6238,
      "Ġç»ıæµİ": 6239,
      "äº©": 6240,
      "èµ·æºĲ": 6241,
      "åķĨäºº": 6242,
      "1943": 6243,
      "è¿ŀç»Ńåī§": 6244,
      "Ġw": 6245,
      "æĥ¨": 6246,
      "ory": 6247,
      "ä½ıåľ¨": 6248,
      "è¿ĽçĲĥ": 6249,
      "1961": 6250,
      "åĳĪçİ°": 6251,
      "æīĢåľ¨åľ°": 6252,
      "å¯¹æŃ¤": 6253,
      "å¤ĸçļĦ": 6254,
      "ç»´å¤ļ": 6255,
      "è±«": 6256,
      "ä¼¼ä¹İ": 6257,
      "å¾ĹåĪ°äºĨ": 6258,
      "æ°Ķè±¡": 6259,
      "å¹¶çĶ±": 6260,
      "åıĮæīĵ": 6261,
      "Ġçī¹å¾ģ": 6262,
      "æĪĺèĥľ": 6263,
      "å¥¥æĸ¯åį¡": 6264,
      "çĲĨæŁ¥": 6265,
      "çļĦä¸ĢæĿ¡": 6266,
      "Ġ1998": 6267,
      "ä¹Įæĸ¯": 6268,
      "è¿½æº¯": 6269,
      "ight": 6270,
      "ä¸ŃåĽ½äººæ°ĳè§£æĶ¾åĨĽ": 6271,
      "äº¥": 6272,
      "åĩºå¸Ń": 6273,
      "å·²çŁ¥": 6274,
      "åķĨåĵģ": 6275,
      "çĽĳå¯Ł": 6276,
      "è°ģ": 6277,
      "å¸ĥæľĹ": 6278,
      "åĸĻ": 6279,
      "åĬŁçİĩ": 6280,
      "ous": 6281,
      "çļĦéĹ®é¢ĺ": 6282,
      "ice": 6283,
      "ä¸ľåįĹéĥ¨": 6284,
      "Ġæ¦Ĥè¦ģ": 6285,
      "è¢«è§Ĩä¸º": 6286,
      "åħ¶ä¸ŃåĮħæĭ¬": 6287,
      "çļĦæĥħ": 6288,
      "old": 6289,
      "æĺ¯ä¸º": 6290,
      "1939": 6291,
      "Th": 6292,
      "æĪĺåĽ½": 6293,
      "æ£ī": 6294,
      "çļĦéŁ³ä¹Ĳ": 6295,
      "æľīä¸¤": 6296,
      "é¢ĸ": 6297,
      "çī¹å®ļ": 6298,
      "ä½ĵéĩį": 6299,
      "å®īå¨ľ": 6300,
      "é²¸": 6301,
      "é±¼ç±»": 6302,
      "å¤§çĲĨ": 6303,
      "åı·çļĦ": 6304,
      "æľīä¸ĢäºĽ": 6305,
      "èĲĿ": 6306,
      "å´ĸ": 6307,
      "æķĪåĬĽäºİ": 6308,
      "ica": 6309,
      "åĬłåħ¥äºĨ": 6310,
      "é©³": 6311,
      "åĶ¤": 6312,
      "è¯ģå®ŀ": 6313,
      "Ġèī¾": 6314,
      "éĩĮåħĭ": 6315,
      "æıĲçĲ´": 6316,
      "åĭŁ": 6317,
      "åįĩä»»": 6318,
      "å£°ç§°": 6319,
      "åıĳçĶŁåľ¨": 6320,
      "çľ¼çĿ": 6321,
      "éħ·": 6322,
      "çļĦè§Ĵèī²": 6323,
      "æľ¬çº¿": 6324,
      "åħ³éĶ®": 6325,
      "æ±ŁåįĹ": 6326,
      "çĶ°æĿĳ": 6327,
      "ĠSp": 6328,
      "ç«ŀèµĽ": 6329,
      "Ġ15": 6330,
      "çļĦæľĢ": 6331,
      "çļĦæīĭ": 6332,
      "åİŁæĿ¥": 6333,
      "èħ°": 6334,
      "å·¥ä½ľå®¤": 6335,
      "ä¸»åĬĽ": 6336,
      "ç©Ĺ": 6337,
      "çĥ¯": 6338,
      "å±Ĭåħ¨åĽ½": 6339,
      "1966": 6340,
      "1967": 6341,
      "èĪªå¤©": 6342,
      "èµĦè®¯": 6343,
      "éĺ³åİ¿": 6344,
      "åģ¶åĥı": 6345,
      "æĺ¯åı°æ¹¾": 6346,
      "èĢĮéĿŀ": 6347,
      "é¹ı": 6348,
      "çŁ®": 6349,
      "åĮ»åŃ¦éĻ¢": 6350,
      "çħ§çīĩ": 6351,
      "å¹´èİ·": 6352,
      "éķ¿åŃĲ": 6353,
      "æ²¿æµ·": 6354,
      "çī©ç§įçļĦ": 6355,
      "å²Ĳ": 6356,
      "Ġæĺİ": 6357,
      "èµ·ä¹ī": 6358,
      "CO": 6359,
      "è¯¥çīĩ": 6360,
      "çļĦéĥ¨åĪĨ": 6361,
      "å¹³è¡¡": 6362,
      "åĪ¶ä½ľäºº": 6363,
      "ä¾Ŀæį®": 6364,
      "åį§": 6365,
      "ä¸Ĭåįĩ": 6366,
      "èĤ©": 6367,
      "çī¹çĤ¹": 6368,
      "ç«ĭæĸ¹": 6369,
      "å®¤åĨħ": 6370,
      "Ġ&": 6371,
      "èĩ³äºİ": 6372,
      "çĹħä¾ĭ": 6373,
      "ä¼ļè¯ķ": 6374,
      "Ġå¥¥": 6375,
      "éĻ·åħ¥": 6376,
      "ĠåĪĨå¸ĥ": 6377,
      "çĭĲ": 6378,
      "éĿłè¿ĳ": 6379,
      "Ġä»¥": 6380,
      "è¡Įä¸ļ": 6381,
      "åĵģç§į": 6382,
      "å½ĵåľ°çļĦ": 6383,
      "æĢ§åĪ«": 6384,
      "å¥³æ¼Ķåĳĺ": 6385,
      "åĮħåĽ´": 6386,
      "å¤´éĥ¨": 6387,
      "1947": 6388,
      "äº¤æµģéģĵ": 6389,
      "ä¸Ńå¼ı": 6390,
      "æ©¡": 6391,
      "ool": 6392,
      "æķĳæı´": 6393,
      "äº¤åĵį": 6394,
      "æºĥ": 6395,
      "å¥½åıĭ": 6396,
      "ä¸»å¼ł": 6397,
      "ä¾£": 6398,
      "åįĹéĿŀ": 6399,
      "äººåı£æĻ®æŁ¥": 6400,
      "é¦ĸä½į": 6401,
      "åħħæ»¡": 6402,
      "è¯¥åħļ": 6403,
      "èĤ¾": 6404,
      "åĩºåıĳ": 6405,
      "åħįè´¹": 6406,
      "ĠæĹ©å¹´": 6407,
      "é«ĺéĽĦ": 6408,
      "æ®ĸæ°ĳåľ°": 6409,
      "è´©": 6410,
      "æ¦Ħ": 6411,
      "è£ģåĪ¤": 6412,
      "æĽ¾äºİ": 6413,
      "Ð¸Ñ": 6414,
      "åĲįè¿Ľå£«": 6415,
      "çĽ¸åħ³çļĦ": 6416,
      "Ġäºļ": 6417,
      "ä¸Ģäºº": 6418,
      "å¥¥æŀĹåĮ¹åħĭè¿ĲåĬ¨ä¼ļ": 6419,
      "800": 6420,
      "ment": 6421,
      "åľ°ä¸Ĭ": 6422,
      "è§Ĩé¢ĳ": 6423,
      "ire": 6424,
      "é¢Ĥ": 6425,
      "å¿ĥèĦı": 6426,
      "ï¼İ": 6427,
      "å¹²çº¿": 6428,
      "å¤§æŃ£": 6429,
      "æİ¨åĬ¨": 6430,
      "çķħ": 6431,
      "çĽ´æĴŃ": 6432,
      "æ¯ıæĹ¥": 6433,
      "æĸ°ç«¹": 6434,
      "è¸ı": 6435,
      "åīĬ": 6436,
      "çĪ¬": 6437,
      "ax": 6438,
      "ĠåĽĽ": 6439,
      "åĴı": 6440,
      "æĸ¯æ´Ľ": 6441,
      "è¯ŃçļĦ": 6442,
      "æĶ¹ç§°": 6443,
      "enn": 6444,
      "ç½Ĺé©¬å¸ĿåĽ½": 6445,
      "è´§è¿Ĳ": 6446,
      "åŃ¦çļĦ": 6447,
      "ä¹Łå°±æĺ¯": 6448,
      "æľ¬ç§ĳ": 6449,
      "åįĩæł¼": 6450,
      "åºļ": 6451,
      "éķ¿å®ĺ": 6452,
      "åı¬å¼Ģ": 6453,
      "æ³ķåħ°è¥¿": 6454,
      "çĶŁæĪĲ": 6455,
      "1938": 6456,
      "ä½ĵéķ¿": 6457,
      "orm": 6458,
      "ç´¯è®¡": 6459,
      "âĢĻ": 6460,
      "é£İæļ´": 6461,
      "åİ¨": 6462,
      "è¡ĮçļĦ": 6463,
      "ure": 6464,
      "å¼Ħ": 6465,
      "èĭ±è¶ħ": 6466,
      "å·´åŁº": 6467,
      "åĽ½å®¶çļĦ": 6468,
      "çŁŃæļĤ": 6469,
      "è¾Ł": 6470,
      "ç¬¬ä¸Ģä½į": 6471,
      "åħ·ä½ĵ": 6472,
      "åıĳçİ°çļĦ": 6473,
      "Ġå¤ĸ": 6474,
      "æľĢé«ĺçļĦ": 6475,
      "æľ¬çīĩ": 6476,
      "orn": 6477,
      "æĺ¯åĽłä¸º": 6478,
      "å¼Ģå¹ķ": 6479,
      "ä»ĸåĴĮ": 6480,
      "ãĢĭãĢĬ": 6481,
      "è·¯ç«Ļ": 6482,
      "éķĳ": 6483,
      "çłĶç©¶éĻ¢": 6484,
      "çĶµå½±èĬĤ": 6485,
      "amp": 6486,
      "ä¿®éģĵéĻ¢": 6487,
      "åľ°åŁŁ": 6488,
      "çĶµåĬ¨": 6489,
      "è½¬æį¢": 6490,
      "ç»¼èīº": 6491,
      "ost": 6492,
      "éĺ²æŃ¢": 6493,
      "åı°é£İ": 6494,
      "åıªè¦ģ": 6495,
      "åħ¬é¡·": 6496,
      "çĶ·ä¸»è§Ĵ": 6497,
      "ĠMar": 6498,
      "å«Į": 6499,
      "ç»ĺçĶ»": 6500,
      "åĬłå°Ķ": 6501,
      "çĮ´": 6502,
      "æľįè£ħ": 6503,
      "æ·±åº¦": 6504,
      "æ´Ľå¤«": 6505,
      "ç¼©åĨĻ": 6506,
      "èµĦæľ¬": 6507,
      "æĤł": 6508,
      "æī©å±ķ": 6509,
      "è¿Ļæł·çļĦ": 6510,
      "çŁĽ": 6511,
      "èĮĦ": 6512,
      "å·¨å¤§": 6513,
      "è¶ĭ": 6514,
      "æ¶Į": 6515,
      "èĲ¥ä¸ļ": 6516,
      "ĠTh": 6517,
      "èµ«å°Ķ": 6518,
      "1937": 6519,
      "ĠçĽ®åīį": 6520,
      "æľĪåľ¨": 6521,
      "äºĨä»ĸçļĦ": 6522,
      "èĮİ": 6523,
      "é©±éĢĲèĪ°": 6524,
      "Ġç¦ı": 6525,
      "æł¼éĽ·": 6526,
      "è¥¿éĩĮ": 6527,
      "ç³»ç»ŁçļĦ": 6528,
      "ä¸»åĬŀ": 6529,
      "ä¸ĭä¸Ģ": 6530,
      "åĲĮçĽŁ": 6531,
      "æ®·": 6532,
      "çĻ¾ä¸ĩ": 6533,
      "çİ°ä¸º": 6534,
      "å¼łä¸ĵè¾ĳ": 6535,
      "èĢĥè¯ķ": 6536,
      "å°ģä¸º": 6537,
      "å¾Īå¤§": 6538,
      "æĥ³è¦ģ": 6539,
      "éĵĥæľ¨": 6540,
      "æŃ¥æŀª": 6541,
      "éĹ»åĲį": 6542,
      "æ²³è°·": 6543,
      "éĺ¿éĩĮ": 6544,
      "å¹ķåºľ": 6545,
      "æ³ķåħ°åħĭ": 6546,
      "é¹ħ": 6547,
      "åħįçĸ«": 6548,
      "ä»¥ä¸ĬçļĦ": 6549,
      "å¼Ģå±ķ": 6550,
      "æĦŁè§ī": 6551,
      "é«ĺçŃīåŃ¦æł¡": 6552,
      "éĻª": 6553,
      "Ġåħ¶": 6554,
      "åı°åĮĹå¸Ĥ": 6555,
      "æĳ§æ¯ģ": 6556,
      "ä¸Ģèĩ´": 6557,
      "è¥¿åįĹéĥ¨": 6558,
      "æīĵçł´": 6559,
      "å¸ĤæĶ¿": 6560,
      "èĭ±éĩĮ": 6561,
      "æµģåŁŁ": 6562,
      "åħĭæŀĹ": 6563,
      "éĩĳå±±": 6564,
      "èĬŃ": 6565,
      "è¯Ħä¼°": 6566,
      "SP": 6567,
      "ĠæŃ¦": 6568,
      "éĢīç§Ģ": 6569,
      "åī¯ä¸»å¸Ń": 6570,
      "èĵ¬": 6571,
      "ä¸ĭäºĨ": 6572,
      "çģŃç»Ŀ": 6573,
      "æ¯Ĺ": 6574,
      "ãĥĭ": 6575,
      "é¦ĸçĽ¸": 6576,
      "ame": 6577,
      "æľĪçļĦ": 6578,
      "ä¸Ĭè¿°": 6579,
      "éķ¿æ²Ļ": 6580,
      "å¥³åŃ©": 6581,
      "åıĺä¸º": 6582,
      "æ²Īéĺ³": 6583,
      "æİªæĸ½": 6584,
      "çŁŃæľŁå¤§åŃ¦": 6585,
      "æĥ§": 6586,
      "ãĥĬ": 6587,
      "æ°ĳä¼Ĺ": 6588,
      "è¾¹å¢ĥ": 6589,
      "æĶ¿æ²»å®¶": 6590,
      "æĻļæľŁ": 6591,
      "åĵĢ": 6592,
      "å²Ľå¼ı": 6593,
      "å¥ĸç«ł": 6594,
      "æ³¢å°Ķ": 6595,
      "tern": 6596,
      "ç¥Ī": 6597,
      "æģ¨": 6598,
      "è¿ĳå¹´": 6599,
      "ç¦ıå»ºçľģ": 6600,
      "ä¹¦ä¸Ń": 6601,
      "åįķæīĵ": 6602,
      "Ġèĭı": 6603,
      "èĻı": 6604,
      "åĪĨæł¡": 6605,
      "act": 6606,
      "é©¹": 6607,
      "çļĦä¸ĢäºĽ": 6608,
      "æ°Ķä½ĵ": 6609,
      "èĦ±ç¦»": 6610,
      "çº¤ç»´": 6611,
      "ä¸Ĭå¸Ŀ": 6612,
      "æĬĽ": 6613,
      "ãĥī": 6614,
      "ä½ľæĽ²å®¶": 6615,
      "uk": 6616,
      "èĪĮ": 6617,
      "åı²èĴĤ": 6618,
      "çļĦåİŁåĽł": 6619,
      "åĮºåĨħ": 6620,
      "ãĥ¥": 6621,
      "çĽ´åįĩ": 6622,
      "ãĤĦ": 6623,
      "å·¥èīº": 6624,
      "ç¼ĸç»Ħ": 6625,
      "æĮ¡": 6626,
      "éħ¿": 6627,
      "æİ¢æµĭ": 6628,
      "å½°åĮĸ": 6629,
      "å¤§åħ¬": 6630,
      "è½¦åİ¢": 6631,
      "åŁºéĩĳä¼ļ": 6632,
      "åĢĻéĢīäºº": 6633,
      "æĪĲåĪĨ": 6634,
      "åĨħéĻĨ": 6635,
      "çİĭä½į": 6636,
      "æļ¨": 6637,
      "å¾·æĸ¯": 6638,
      "ãĥł": 6639,
      "æ´Ľæĸ¯": 6640,
      "æĬµæĬĹ": 6641,
      "03": 6642,
      "è¥¿èĹı": 6643,
      "æ»¡æ´²": 6644,
      "èĲ½æĪĲ": 6645,
      "åĺīä¹ī": 6646,
      "èļĢ": 6647,
      "ames": 6648,
      "å¼Ĺæĭī": 6649,
      "çľ¼çĿĽ": 6650,
      "åĮĹèµ·": 6651,
      "åŀĴæīĵ": 6652,
      "åĲĦä¸ª": 6653,
      "åıĻè¿°": 6654,
      "ç»ĳ": 6655,
      "ä¸ºæŃ¤": 6656,
      "æĸ¹ä¾¿": 6657,
      "ç©Ĩæĸ¯æŀĹ": 6658,
      "æ¼ı": 6659,
      "ä¸¤ä½į": 6660,
      "ĠåĲī": 6661,
      "è¿Ĳæ²³": 6662,
      "è®°å¿Ĩ": 6663,
      "é¦Ļæ¸¯éħįéŁ³": 6664,
      "åĬŀäºĭå¤Ħ": 6665,
      "éĢ®": 6666,
      "èģĶç»ľ": 6667,
      "æĴ°åĨĻ": 6668,
      "Ġæĭī": 6669,
      "æ¸¸æĪıçļĦ": 6670,
      "æ¶Īè´¹": 6671,
      "é¢ħ": 6672,
      "åĭĺ": 6673,
      "Ġâ": 6674,
      "æ¸¸å®¢": 6675,
      "æĶ¾åľ¨": 6676,
      "ĠåĶĲ": 6677,
      "å¹¶è¢«": 6678,
      "èº«ä¸Ĭ": 6679,
      "æĪĺåľº": 6680,
      "ç¦ıå¾·": 6681,
      "å»ĸ": 6682,
      "åİŁä¸º": 6683,
      "è¾¹ä¸º": 6684,
      "æĦ¤": 6685,
      "ä»»å¤©åłĤ": 6686,
      "éĢļå¾Ģ": 6687,
      "èį¡": 6688,
      "ç±³äºļ": 6689,
      "çĥ·": 6690,
      "ç»ĨèıĮ": 6691,
      "è¿ģèĩ³": 6692,
      "ä¸»ä½ĵ": 6693,
      "ç§ĳå°Ķ": 6694,
      "åº§åłĤ": 6695,
      "ĠCl": 6696,
      "å¾ģæľį": 6697,
      "å¾ĹåĪĨ": 6698,
      "ä½¿åħ¶": 6699,
      "éĩįè¿Ķ": 6700,
      "éĻĨç»Ń": 6701,
      "è¯Ħä¸º": 6702,
      "iel": 6703,
      "ç§°åĳ¼": 6704,
      "çļĦæĢ»": 6705,
      "åĽ½å°ı": 6706,
      "çĥĤ": 6707,
      "åħ¶ä¸Ńä¸Ģä¸ª": 6708,
      "æĬĦ": 6709,
      "æĶ¹å»º": 6710,
      "Ġ1997": 6711,
      "è¾ĵåħ¥": 6712,
      "MV": 6713,
      "åĺīåºĨ": 6714,
      "äºĭåĬ¡æīĢ": 6715,
      "è·¯æĺĵæĸ¯": 6716,
      "ç»´å¤ļåĪ©äºļ": 6717,
      "ãĥŁ": 6718,
      "are": 6719,
      "èı²åĪ©": 6720,
      "Ġæ¸ħ": 6721,
      "çľī": 6722,
      "æĽ´æĸ°": 6723,
      "å¤´è¡Ķ": 6724,
      "ĠèĥĮæĻ¯": 6725,
      "å´ĩç¥¯": 6726,
      "Ġå¤ļ": 6727,
      "æµ·ä¸Ĭ": 6728,
      "ç´§æĢ¥": 6729,
      "å°ĺ": 6730,
      "åľºåľ°": 6731,
      "èµ·çĤ¹": 6732,
      "æĶ¹åĲį": 6733,
      "åĽŀåĲĪ": 6734,
      "çļĦæĸ¹æ³ķ": 6735,
      "åįģä¸ĢæľĪ": 6736,
      "ç»ıçĶ±": 6737,
      "èĭıç»´åŁĥ": 6738,
      "æĿĥåĪ©": 6739,
      "ä»ĸä»¬åľ¨": 6740,
      "èĽĽ": 6741,
      "æıĲä¾ĽäºĨ": 6742,
      "John": 6743,
      "ide": 6744,
      "æĸ¯åį¡": 6745,
      "æĪĺè½¦": 6746,
      "ris": 6747,
      "å¸Ĥä¸Ńå¿ĥ": 6748,
      "ĠæĢ»": 6749,
      "å¹´å¤ıåŃ£": 6750,
      "éªı": 6751,
      "ä¿Ŀå®Ī": 6752,
      "ä¹Ŀå·ŀ": 6753,
      "ç¿°æŀĹ": 6754,
      "ĠX": 6755,
      "Ġä½ľåĵģ": 6756,
      "æĸ°å»º": 6757,
      "æĶ¯ä»ĺ": 6758,
      "éĥ½åľ¨": 6759,
      "ä»Ĭå¤©": 6760,
      "æĢĢçĸĳ": 6761,
      "æ³ķè¯Ń": 6762,
      "æīĢè°ĵ": 6763,
      "ãĤ¦": 6764,
      "ä¸ļä½Ļ": 6765,
      "å»ºçŃĳéĿ¢ç§¯": 6766,
      "ç½Ĺä¼¯çī¹": 6767,
      "æ²³åĮĹçľģ": 6768,
      "ð«": 6769,
      "ãģĺ": 6770,
      "æĿĳåºĦ": 6771,
      "æĮĩå®ļ": 6772,
      "ãĢıï¼Ī": 6773,
      "è¿Ļé¦ĸ": 6774,
      "æııç»ĺ": 6775,
      "éĻ¨": 6776,
      "æĪ·éĥ¨": 6777,
      "Sp": 6778,
      "Ġäºº": 6779,
      "æĸ°åŁİ": 6780,
      "å¸ĥéĩĮ": 6781,
      "æĮĩæķ°": 6782,
      "æİ¨å¹¿": 6783,
      "Ġ+": 6784,
      "çļĦåŁºç¡Ģ": 6785,
      "æĪĬ": 6786,
      "æ²ª": 6787,
      "é¢ĨéĺŁ": 6788,
      "å¼ºè°ĥ": 6789,
      "å¤§ä¼Ĺ": 6790,
      "éķ¿å®ī": 6791,
      "iam": 6792,
      "Ġå®ĭ": 6793,
      "ä¼ļæľī": 6794,
      "ç§įç±»": 6795,
      "ley": 6796,
      "Ġa": 6797,
      "åĩºåľŁ": 6798,
      "1951": 6799,
      "ãģł": 6800,
      "åįķçĭ¬": 6801,
      "110": 6802,
      "å®Įé¢ľ": 6803,
      "äºĨä¸ĢäºĽ": 6804,
      "çĲĨæĥ³": 6805,
      "çº³ç²¹": 6806,
      "Ġå¥ĸé¡¹": 6807,
      "åĩºèµĽ": 6808,
      "æİĴåĪĹ": 6809,
      "ç½Ĺé©¬å°¼äºļ": 6810,
      "ĠåĨħ": 6811,
      "å¤§éĢī": 6812,
      "éĥ½è¢«": 6813,
      "ä½ĳ": 6814,
      "åĴĴ": 6815,
      "åĲĳä¸ľ": 6816,
      "çļĦæ¯įäº²": 6817,
      "çĵ·": 6818,
      "å®ĪæĬ¤": 6819,
      "æĪĺæĸĹæľº": 6820,
      "è¯¥åħ¬åı¸": 6821,
      "çº§åĪ«": 6822,
      "æķĪåºĶ": 6823,
      "èªĵ": 6824,
      "åľ°äº§": 6825,
      "äºĮæĪĺ": 6826,
      "çĽ¸å½ĵäºİ": 6827,
      "Un": 6828,
      "çļĦç¾İåĽ½": 6829,
      "åķĨåĬ¡": 6830,
      "çļĦæĪĲç»©": 6831,
      "åĳĺå¤ĸ": 6832,
      "èĻ¾": 6833,
      "ett": 6834,
      "ä»ĸä¹Ł": 6835,
      "ä¹ĭä¸º": 6836,
      "ensis": 6837,
      "Ġç¾İ": 6838,
      "æµģæµª": 6839,
      "èµŀåĬ©": 6840,
      "æİ©": 6841,
      "ä»£æĽ¿": 6842,
      "æįī": 6843,
      "çªĦ": 6844,
      "å±ĤçļĦ": 6845,
      "çļĦåľ£": 6846,
      "åĲĬ": 6847,
      "é¢ĳçİĩ": 6848,
      "åİĮ": 6849,
      "åı²å¯Ĩ": 6850,
      "å²Ľä¸Ĭ": 6851,
      "æ´Ľéĺ³": 6852,
      "åĩºçİ°äºĨ": 6853,
      "æī©å»º": 6854,
      "çļĦæ¯ĶèµĽ": 6855,
      "åĲĮåĲį": 6856,
      "å·´åŁºæĸ¯åĿ¦": 6857,
      "åı¸æ³ķ": 6858,
      "è¶³å¤Ł": 6859,
      "æĸ¯åł¡": 6860,
      "æĹłè®º": 6861,
      "ç¥ŀç¤¾": 6862,
      "æīĵè´¥": 6863,
      "æĤŁ": 6864,
      "å¸Ĳ": 6865,
      "é¢ł": 6866,
      "ãĥĹ": 6867,
      "ical": 6868,
      "å¸Ńä½į": 6869,
      "éĽķå¡ĳ": 6870,
      "çłĶç©¶ä¸Ńå¿ĥ": 6871,
      "éĿĴå°ĳå¹´": 6872,
      "ä¸Ģè¯į": 6873,
      "å¤©åĲİ": 6874,
      "ç§¯åĪĨ": 6875,
      "ä¸½èİİ": 6876,
      "age": 6877,
      "åĪĨå¸ĥåľ¨": 6878,
      "æĹ¶ä»£çļĦ": 6879,
      "èı²å°Ķå¾·": 6880,
      "æľĢæĹ©çļĦ": 6881,
      "ä»£çļĦ": 6882,
      "æİ¥èĳĹ": 6883,
      "Ġ1996": 6884,
      "èĢĮä¸įæĺ¯": 6885,
      "æİ¥æĽ¿": 6886,
      "æĳĶ": 6887,
      "éĥ¡çİĭ": 6888,
      "å¾Īå°ĳ": 6889,
      "ver": 6890,
      "ä¸¤åĽ½": 6891,
      "æĮĩæĮ¥å®ĺ": 6892,
      "è®¨ä¼Ĳ": 6893,
      "Ð¾Ð²": 6894,
      "å°¼åı¤": 6895,
      "åıįæĺł": 6896,
      "æĻ®é²ģå£«": 6897,
      "ç«£": 6898,
      "ivers": 6899,
      "æĪĮ": 6900,
      "åĪ¶å®ļ": 6901,
      "ä¸¤åĲį": 6902,
      "éĽķåĥı": 6903,
      "äºĮçº§": 6904,
      "åĪĽæĸ°": 6905,
      "å¾Ĺå¥ĸ": 6906,
      "å¹³æĪĲ": 6907,
      "æł¼åĭĴ": 6908,
      "å¡ŀå°Ķç»´äºļ": 6909,
      "åĬłéĢŁ": 6910,
      "åĵĪåĪ©": 6911,
      "èĵĦ": 6912,
      "å¤©æ°Ķ": 6913,
      "åĪ¶ä½ľçļĦ": 6914,
      "çĽ¸åĲĮçļĦ": 6915,
      "ç»µ": 6916,
      "ä¸ĢæľŁ": 6917,
      "äºĨä»ĸ": 6918,
      "é»Ľ": 6919,
      "åŀĭçĶµåĬĽæľºè½¦": 6920,
      "è§Ĥåħī": 6921,
      "èģĶèµĽåĨłåĨĽ": 6922,
      "ÙĦ": 6923,
      "åĨ»": 6924,
      "ç½Ĺå¾·": 6925,
      "æł¼éĩĮ": 6926,
      "è¶ħè¶Ĭ": 6927,
      "çªģåĩº": 6928,
      "èĽĭçĻ½è´¨": 6929,
      "çļĦä¸Ĭ": 6930,
      "åĨłçĬ¶": 6931,
      "ld": 6932,
      "ron": 6933,
      "Ġk": 6934,
      "Ġï¼ļ": 6935,
      "å°Ĩåľ¨": 6936,
      "åŀ£": 6937,
      "å¸¸å¸¸": 6938,
      "ç¥ŀç§ĺ": 6939,
      "çĲĨè§£": 6940,
      "åį¡ç½Ĺ": 6941,
      "ä½ĵåŀĭ": 6942,
      "éĩĳåĪļ": 6943,
      "èĪªçıŃ": 6944,
      "ĠPro": 6945,
      "äº¤åıī": 6946,
      "çłĶç©¶çĶŁ": 6947,
      "éĿĴæĺ¥": 6948,
      "èĿĻ": 6949,
      "åºĦä¸ºéĤ»": 6950,
      "éĢļè®¯": 6951,
      "å°Ķé¡¿": 6952,
      "ä¸ĭåįĬ": 6953,
      "åį¸": 6954,
      "æĪ¿éĹ´": 6955,
      "èĿĻèĿł": 6956,
      "æ±¶": 6957,
      "æıĲåıĬ": 6958,
      "èº«åĪĨ": 6959,
      "ç«ŀæĬĢ": 6960,
      "OR": 6961,
      "é¢Ĩäºĭ": 6962,
      "è®¾è®¡å¸Ī": 6963,
      "åĨľæ°ĳ": 6964,
      "æľīä¸ī": 6965,
      "æĶ¯æµģ": 6966,
      "æĨ": 6967,
      "åľ°ä¸Ń": 6968,
      "çļĦæĥħåĨµ": 6969,
      "Ġæ¼Ķåĩº": 6970,
      "åĩ°": 6971,
      "å·¡æ´ĭ": 6972,
      "çļĦæĶ¯æĮģ": 6973,
      "è¿ĽæŃ¥": 6974,
      "æĦıåĳ³": 6975,
      "éĢĤåºĶ": 6976,
      "åľºæīĢ": 6977,
      "çĲĨåŃ¦": 6978,
      "åİŁåħĪ": 6979,
      "åŁİéĻħ": 6980,
      "å¦Ĥä»Ĭ": 6981,
      "åī¯ä¸»ä»»": 6982,
      "æľĢä½İ": 6983,
      "ãĥģ": 6984,
      "åıĻåĪ©äºļ": 6985,
      "ĠCol": 6986,
      "éĶħ": 6987,
      "å²ĽçļĦ": 6988,
      "åĲĮæĹ¶ä¹Ł": 6989,
      "å§Ĭå¦¹": 6990,
      "èĭ±éķĳ": 6991,
      "éªĹ": 6992,
      "è§īå¾Ĺ": 6993,
      "çºº": 6994,
      "åıĭè°Ĭ": 6995,
      "Ġæ±ī": 6996,
      "å½ĵå±Ģ": 6997,
      "è®¾è®¡çļĦ": 6998,
      "DVD": 6999,
      "çļĦæ¯ĶèµĽä¸Ń": 7000,
      "æ¡Į": 7001,
      "å·²äºİ": 7002,
      "æ°¸ä¹ħ": 7003,
      "å¤§è¿ŀ": 7004,
      "åĩ¸": 7005,
      "æł¼æŀĹ": 7006,
      "æ²¿çº¿": 7007,
      "å®īä¸ľå°¼": 7008,
      "æ¹ĸåįĹçľģ": 7009,
      "çļĦå½¢å¼ı": 7010,
      "æĸ¯æīĺ": 7011,
      "ä»»æľŁ": 7012,
      "ĠåŃĻ": 7013,
      "æ°Ł": 7014,
      "èĭį": 7015,
      "ãĥĵ": 7016,
      "è®¾äºİ": 7017,
      "åħĥå¸ħ": 7018,
      "å¸Įçī¹": 7019,
      "åĨĻä½ľ": 7020,
      "æİ¢ç´¢": 7021,
      "æŀ¢çº½": 7022,
      "ç»Ħéķ¿": 7023,
      "éķ°": 7024,
      "ä½ĨåĽł": 7025,
      "è¯ĬæĸŃ": 7026,
      "æĹħå®¢éĵģéģĵ": 7027,
      "ĠçĪ±": 7028,
      "è¿ĩçļĦ": 7029,
      "çĤŃ": 7030,
      "eth": 7031,
      "æĿı": 7032,
      "åºĨç¥Ŀ": 7033,
      "çĽĪ": 7034,
      "ä¼ļè¢«": 7035,
      "ä¼ļç¤¾": 7036,
      "æ¯Ķå°Ķ": 7037,
      "é¢ĨåħĪ": 7038,
      "æĴŀåĩ»": 7039,
      "gh": 7040,
      "ä¸Ńå°Ĩ": 7041,
      "äººå¤§": 7042,
      "èĩªæĪĳ": 7043,
      "æŃĮè¯į": 7044,
      "åħ¶ä¸Ńä¸Ģ": 7045,
      "çĻ»ä¸Ĭ": 7046,
      "å±¥": 7047,
      "åĩĨåĨ³èµĽ": 7048,
      "1909": 7049,
      "ä»¥æŃ¤": 7050,
      "åĽ¾åĥı": 7051,
      "ç»ĩçĶ°": 7052,
      "éĻĦåĬł": 7053,
      "å¹´ä¸İ": 7054,
      "æĹ¥å¼Ģå§ĭ": 7055,
      "å®ļæľŁ": 7056,
      "éģŃéģĩ": 7057,
      "åĨħæĪĺ": 7058,
      "äº¤ç»Ļ": 7059,
      "å¤«å¦ĩ": 7060,
      "ãĢĳ": 7061,
      "éħ®": 7062,
      "æīĭæľº": 7063,
      "è¯Ħå®¡": 7064,
      "ãĢĲ": 7065,
      "å¹´ä»ĸ": 7066,
      "çĽĳçĭ±": 7067,
      "æ±¡æŁĵ": 7068,
      "åħĪè¿Ľ": 7069,
      "æĶĢ": 7070,
      "å·¡æ´ĭèĪ°": 7071,
      "ç«ĭéĻ¶": 7072,
      "çİĩåĨĽ": 7073,
      "æĴ¤éĢĢ": 7074,
      "ç«ĻçļĦ": 7075,
      "æ¬¡åŃĲ": 7076,
      "éĢłåŀĭ": 7077,
      "Ġæį®": 7078,
      "Ġ14": 7079,
      "ç¼Ŀ": 7080,
      "ä¿Ĺç§°": 7081,
      "äº¤æĺĵæīĢ": 7082,
      "åıĳæİĺ": 7083,
      "ä¸¾åĬŀçļĦ": 7084,
      "æŀ«": 7085,
      "çĶ·åŃ©": 7086,
      "1936": 7087,
      "æ¼Ĥ": 7088,
      "èĪ¹åıª": 7089,
      "ä¸ĢçĻ¾": 7090,
      "æĭ¨": 7091,
      "ä¹ĭå¤Ħ": 7092,
      "å®¢è½¦": 7093,
      "Ã¼": 7094,
      "å§Ķæīĺ": 7095,
      "åĳ¼åĲ¸": 7096,
      "åĲİäºİ": 7097,
      "åĩºèĩª": 7098,
      "ãĥĩ": 7099,
      "åłĢ": 7100,
      "çĩĥæĸĻ": 7101,
      "åħĶ": 7102,
      "Ġèµµ": 7103,
      "åľ°äºļ": 7104,
      "æ¤ħ": 7105,
      "Ġä½¿çĶ¨": 7106,
      "é¾Ļç±»": 7107,
      "å°±åľ¨": 7108,
      "åĪĻåľ¨": 7109,
      "åĩºå±Ģ": 7110,
      "åį³å°Ĩ": 7111,
      "çģ«è½¦": 7112,
      "åıĳè¡ĮçļĦ": 7113,
      "la": 7114,
      "äººç§°": 7115,
      "æĺİç¡®": 7116,
      "æ²Ļæ¼ł": 7117,
      "åıĽä¹±": 7118,
      "Ġé¾Ļ": 7119,
      "è´§å¸ģ": 7120,
      "æĳĩæ»ļ": 7121,
      "ç«ĭéĻ¶å®Ľ": 7122,
      "Ġåįİ": 7123,
      "ons": 7124,
      "å·¨å¤§çļĦ": 7125,
      "æĹ¥æĬ¥": 7126,
      "çº¦çĳŁå¤«": 7127,
      "ç¿¡": 7128,
      "çĸ¯": 7129,
      "åı·ä¸º": 7130,
      "ä½ıæ°ĳ": 7131,
      "æĵ¢": 7132,
      "ä¸ªä½ĵ": 7133,
      "åħ¬ä¼ļ": 7134,
      "å¾·åĨĽ": 7135,
      "è¾¹çļĦ": 7136,
      "æĽ¾æĺ¯": 7137,
      "éģĹä¼ł": 7138,
      "Êģ": 7139,
      "èµ·åĪĿ": 7140,
      "èĳĹæľī": 7141,
      "250": 7142,
      "å¢ŀå¼º": 7143,
      "ash": 7144,
      "ç¡®ä¿Ŀ": 7145,
      "å®ĮæĪĲäºĨ": 7146,
      "na": 7147,
      "ÉĽ": 7148,
      "æĺĶ": 7149,
      "è¾Ī": 7150,
      "å¥³ç¥ŀ": 7151,
      "æ¸¯åħĥ": 7152,
      "çİ¯çĲĥ": 7153,
      "å¤§å®¶": 7154,
      "å¯¹åħ¶": 7155,
      "åįģä¸īå¹´": 7156,
      "å¸ĥæĶ¿ä½¿": 7157,
      "IV": 7158,
      "å¹´ä»»": 7159,
      "éĩĮè¾¾": 7160,
      "æŃĮåĶ±": 7161,
      "æĸ¹éĿ¢çļĦ": 7162,
      "æĶ¹ç¼ĸèĩª": 7163,
      "åĵª": 7164,
      "åį«éĺŁ": 7165,
      "åº¸": 7166,
      "éĺľ": 7167,
      "æĸ¯èĴĤ": 7168,
      "ä¹ĭå¹´åı·": 7169,
      "ãĤ¬": 7170,
      "æ³Ħ": 7171,
      "èĭıå·ŀ": 7172,
      "æĿ°åĩº": 7173,
      "æĺİæ²»ä¸īåįģ": 7174,
      "ĠéħįéŁ³": 7175,
      "MA": 7176,
      "å¤§åĲĮ": 7177,
      "çĶ²ç»Ħ": 7178,
      "æĭīå¾·": 7179,
      "Ġ2023": 7180,
      "æĭīå°Ķ": 7181,
      "å¤§éĩıçļĦ": 7182,
      "åŃ£åĲİèµĽ": 7183,
      "çīŁ": 7184,
      "è´·": 7185,
      "å¤ļäºº": 7186,
      "äºļç¾İ": 7187,
      "éĺŁåıĭ": 7188,
      "æŃ£éĿ¢": 7189,
      "æ¶Ľ": 7190,
      "æļĤæĹ¶": 7191,
      "ĠåŃĲ": 7192,
      "æŁ¥å°Ķæĸ¯": 7193,
      "åı¦æľī": 7194,
      "ä»ħæľī": 7195,
      "æ¹ĸåĮĹçľģ": 7196,
      "è¢ľ": 7197,
      "è£´": 7198,
      "1933": 7199,
      "ien": 7200,
      "ä¸ĢèģĮ": 7201,
      "æĹ¥åĲİ": 7202,
      "æ£±": 7203,
      "è§ĤéŁ³": 7204,
      "è¶ĬæĿ¥": 7205,
      "Ph": 7206,
      "åľ¨æĸ°": 7207,
      "ç«£å·¥": 7208,
      "å¹´èİ·å¾Ĺ": 7209,
      "æľīè®¸å¤ļ": 7210,
      "ä¸įè¯¦": 7211,
      "ãĥĲ": 7212,
      "åĽ½å®¶åħ¬åĽŃ": 7213,
      "ä¸ĵçĶ¨": 7214,
      "ç¥ĸåħĪ": 7215,
      "åģļåĩº": 7216,
      "æĹĭè½¬": 7217,
      "ç¿¡ç¿ł": 7218,
      "ook": 7219,
      "Ġåħ³": 7220,
      "æĶ¹è¿Ľ": 7221,
      "IT": 7222,
      "éĢīåĩº": 7223,
      "è®©ä»ĸ": 7224,
      "éģĹè¿¹": 7225,
      "æ¿Ĵ": 7226,
      "Ġç±³": 7227,
      "ä¿Ŀéļľ": 7228,
      "æµģä¼ł": 7229,
      "ä¸ľæµ·": 7230,
      "åĬ¨è½¦ç»Ħ": 7231,
      "çİ°æľī": 7232,
      "çªĿ": 7233,
      "æ¨¡çī¹": 7234,
      "åŃĺåľ¨çļĦ": 7235,
      "çĽ¸è¿ŀ": 7236,
      "æĭħå½ĵ": 7237,
      "ï¼īãĢģãĢĬ": 7238,
      "éŀĭ": 7239,
      "çļĦçĶŁæ´»": 7240,
      "è´¬": 7241,
      "åĮºåĪ«": 7242,
      "ite": 7243,
      "éĺħè¯»": 7244,
      "é»ĳæļĹ": 7245,
      "ĠLe": 7246,
      "éĢļçĶ¨": 7247,
      "çĶ»éĿ¢": 7248,
      "åĨľæĿĳ": 7249,
      "å¹´ä¸ĸçķĮæĿ¯": 7250,
      "æ©Ħ": 7251,
      "ä½¥": 7252,
      "çº§çļĦ": 7253,
      "çĶµè§ĨèĬĤçĽ®": 7254,
      "Äģ": 7255,
      "é¸¦": 7256,
      "çĭ¬ç«ĭçļĦ": 7257,
      "å¤©æ´¥å¸Ĥ": 7258,
      "ĠåĲĮ": 7259,
      "èĭ±åĨĽ": 7260,
      "åĸī": 7261,
      "æ³°åĭĴ": 7262,
      "æħĪåĸĦ": 7263,
      "è¯ŀçĶŁ": 7264,
      "è¶ĬæĿ¥è¶Ĭ": 7265,
      "IP": 7266,
      "éķ¿å¤§": 7267,
      "èŀįåĲĪ": 7268,
      "åĪĳéĥ¨": 7269,
      "è¾ŀèģĮ": 7270,
      "åľ¨èĭ±åĽ½": 7271,
      "åĩ¤åĩ°": 7272,
      "ĠèĳĹä½ľ": 7273,
      "åĽłåħ¶": 7274,
      "åĽ¾æ¡Ī": 7275,
      "Ġ1995": 7276,
      "èĹ¤åİŁ": 7277,
      "è¯¦ç»Ĩ": 7278,
      "Ġæľ±": 7279,
      "æĭĵè·ĭ": 7280,
      "æľĢä¸º": 7281,
      "ãĤĪ": 7282,
      "çĽ¸åıį": 7283,
      "éħ¯": 7284,
      "ç»´åħĭ": 7285,
      "ç¦ıéŁ³": 7286,
      "éĺ²å®Ī": 7287,
      "ä½Ļäºº": 7288,
      "oph": 7289,
      "OS": 7290,
      "å¤§è§Ħæ¨¡": 7291,
      "ä¸ĬåįĪ": 7292,
      "åľºçļĦ": 7293,
      "åħ¨åŀĴæīĵ": 7294,
      "çĮ¿": 7295,
      "è½¯æĿ¡": 7296,
      "å¥¸": 7297,
      "å¤©åºľ": 7298,
      "æīĵè¿Ľ": 7299,
      "å®¡åĪ¤": 7300,
      "å¤§å¹ħ": 7301,
      "æµ´": 7302,
      "æĸĮ": 7303,
      "çĽ®çļĦæĺ¯": 7304,
      "æĶ¹è®¾": 7305,
      "æ²¿å²¸": 7306,
      "èī³": 7307,
      "ale": 7308,
      "ä¸ĵç§ĳ": 7309,
      "ä¼łç»ŁçļĦ": 7310,
      "sp": 7311,
      "æ³ķçļĦ": 7312,
      "æĥħèĬĤ": 7313,
      "æī©å¼ł": 7314,
      "ĠæĿ¾": 7315,
      "åĽ½åħ¬": 7316,
      "æļĤåģľ": 7317,
      "DNA": 7318,
      "aul": 7319,
      "çļĦéĺ¿": 7320,
      "è¢«å¹¶åħ¥": 7321,
      "ç¥·": 7322,
      "å®¹çº³": 7323,
      "ĠEn": 7324,
      "ove": 7325,
      "åĬłå·¥": 7326,
      "æł¼é²ģ": 7327,
      "ç»´æĬ¤": 7328,
      "å¥ĸéĩĳ": 7329,
      "åķ¦": 7330,
      "æľ¬ä¹¦": 7331,
      "ãģĪ": 7332,
      "å¹¿å²Ľ": 7333,
      "æħ°": 7334,
      "ä¼ļä¸Ĭ": 7335,
      "å¼ķè¿Ľ": 7336,
      "åĿļæĮģ": 7337,
      "Ġè½¦ç«Ļç»ĵæŀĦ": 7338,
      "åĩ¹": 7339,
      "Ġå»ºçŃĳ": 7340,
      "åĽ½æľī": 7341,
      "åĽ½éĵģ": 7342,
      "å½ĵå¤©": 7343,
      "çĴĭ": 7344,
      "äºİæŃ¤": 7345,
      "åīįåĲİ": 7346,
      "åĪ©çĽĬ": 7347,
      "ä¼łåĬ¨": 7348,
      "é¢Ĩå¯¼äºº": 7349,
      "åĴ¨è¯¢": 7350,
      "rist": 7351,
      "åľ¨éĤ£éĩĮ": 7352,
      "æ±ģ": 7353,
      "çī©çļĦ": 7354,
      "ç§ĳçļĦ": 7355,
      "éķĩåĮº": 7356,
      "æ¥ł": 7357,
      "Ġ13": 7358,
      "ãģĳ": 7359,
      "ä¿Ŀè¯ģ": 7360,
      "ara": 7361,
      "ä¸ĸçºªçļĦ": 7362,
      "èĩĢé³į": 7363,
      "åĨłçĬ¶çĹħæ¯Ĵ": 7364,
      "ĠæŃ¤å¤ĸ": 7365,
      "çİ«": 7366,
      "å¾·ç½Ĺ": 7367,
      "æľĿæĹ¥": 7368,
      "åĲĮæĹ¶ä¹Łæĺ¯": 7369,
      "æ¸©æ³ī": 7370,
      "çĨĶ": 7371,
      "Ġ1990": 7372,
      "è´¢åĬ¡": 7373,
      "åĨĢ": 7374,
      "æµ¸": 7375,
      "æį·åħĭ": 7376,
      "Ġfor": 7377,
      "åĬ¾": 7378,
      "éģĵå¤«": 7379,
      "è½¦ä½ĵ": 7380,
      "ãĤı": 7381,
      "éĵ¶æ²³": 7382,
      "æ¢¦æĥ³": 7383,
      "æ§½": 7384,
      "å½ĵä»£": 7385,
      "ãĢģãĢĬ": 7386,
      "åħ¥åĽ´": 7387,
      "åī§ä¸Ń": 7388,
      "èĻŀ": 7389,
      "ä¸ĸçºªåĪĿ": 7390,
      "éĢ®æįķ": 7391,
      "ium": 7392,
      "ĠçļĦæĹ¶åĮºä¸ºUTC": 7393,
      "ĠæīĢå±ŀçļĦçľģçº§éĢīåĮºä¸º": 7394,
      "æĺı": 7395,
      "åĶ¯ä¸ĢçļĦ": 7396,
      "Ġä¸İæİ¥å£¤çļĦå¸Ĥéķĩ": 7397,
      "ĠçļĦéĤ®æĶ¿ç¼ĸçłģä¸ºP": 7398,
      "ĠäºİP": 7399,
      "çĶ°ä¸Ń": 7400,
      "åįĩæł¼ä¸º": 7401,
      "Ġèĭ¥": 7402,
      "æĹ±": 7403,
      "å·¨äºº": 7404,
      "å®īå¾½çľģ": 7405,
      "ID": 7406,
      "æĸ¥": 7407,
      "å¥ł": 7408,
      "æĪĲäºº": 7409,
      "ç¥¸": 7410,
      "åŁİå¢Ļ": 7411,
      "å¥½è¯Ħ": 7412,
      "éĨī": 7413,
      "ç«ŀéĢī": 7414,
      "éĢıéľ²": 7415,
      "me": 7416,
      "Ġå¹³": 7417,
      "æī£": 7418,
      "è¾£": 7419,
      "åīįéĶĭ": 7420,
      "ç¾İåĽ½çļĦ": 7421,
      "åľ¨ä¸Ń": 7422,
      "åºµ": 7423,
      "åĨħåľ°": 7424,
      "æŃ¤æ¬¡": 7425,
      "å®ŀåĬĽ": 7426,
      "å°Ħåħ¥": 7427,
      "çĽ´åįĩæľº": 7428,
      "rin": 7429,
      "åĲįä¸¾äºº": 7430,
      "æ³ķåºŃ": 7431,
      "NHK": 7432,
      "ä¸ŃåĽ½çļĦ": 7433,
      "åįķä¸Ģ": 7434,
      "åįıè°ĥ": 7435,
      "æİĴè¡Įæ¦ľ": 7436,
      "ä¸įè¦ģ": 7437,
      "ãĥ¡": 7438,
      "åķĨåºĹ": 7439,
      "çĻ¾å§ĵ": 7440,
      "æĦŁæĥħ": 7441,
      "åŀĤçĽ´": 7442,
      "ãĢĤâĢľ": 7443,
      "ä¹Łåı¯": 7444,
      "æ¡Ĩ": 7445,
      "äºĶä¸ĸ": 7446,
      "å¼ŁåŃĲ": 7447,
      "ç»ıæµİåŃ¦": 7448,
      "åıĤä¸İäºĨ": 7449,
      "æ©Ħæ¦Ħ": 7450,
      "Ġæĸĩ": 7451,
      "è´Ŀåħĭ": 7452,
      "åĳİ": 7453,
      "å®¢ä¸²": 7454,
      "çļĦæĹ¥": 7455,
      "èĥĥ": 7456,
      "åĮºåĪĨ": 7457,
      "åħĪåıĳ": 7458,
      "çĶ·å¥³": 7459,
      "åľ¨åĨħçļĦ": 7460,
      "å¤ªåİŁ": 7461,
      "å½¢å®¹": 7462,
      "èµĦåĬ©": 7463,
      "åį°åĪ·": 7464,
      "ãĥĥãĤ¯": 7465,
      "æĢ¨": 7466,
      "æĢ»ä¼ļ": 7467,
      "åĻ¨çļĦ": 7468,
      "å¿ħè¦ģ": 7469,
      "ä¸Ģéĥİ": 7470,
      "ä»¥è¥¿": 7471,
      "èĩªç§°": 7472,
      "åĲĦåĽ½": 7473,
      "å§ĭå»ºäºİ": 7474,
      "çļĦèĥ½åĬĽ": 7475,
      "æľĪçĲĥ": 7476,
      "çŃĭ": 7477,
      "é©¬å¾·éĩĮ": 7478,
      "åĿ¤": 7479,
      "è§Ĩè§ī": 7480,
      "æĶ¿åºľçļĦ": 7481,
      "é©±åĬ¨": 7482,
      "éĺŁåĳĺ": 7483,
      "æĽ´å¤ļçļĦ": 7484,
      "è¿ªäºļ": 7485,
      "åı°ä¸Ńå¸Ĥ": 7486,
      "yp": 7487,
      "çī²": 7488,
      "åīįèº«": 7489,
      "å¡Ķå°Ķ": 7490,
      "Ġç®Ģ": 7491,
      "ä»¥ä¸ľ": 7492,
      "èĬ½": 7493,
      "è¶ģ": 7494,
      "æĢ»éĿ¢ç§¯": 7495,
      "çª¦": 7496,
      "ä¼Ĺè®®éĻ¢": 7497,
      "æ©Ļ": 7498,
      "æµ·åįĹ": 7499,
      "é¥²": 7500,
      "æĶ¯çº¿": 7501,
      "åĲİåį«": 7502,
      "ä»İæľª": 7503,
      "Ġ1994": 7504,
      "è¯¥åĽ½": 7505,
      "éħįè§Ĵ": 7506,
      "æĳ©å°Ķ": 7507,
      "æĿ¥èĩªäºİ": 7508,
      "çĤ¸å¼¹": 7509,
      "åįłæį®": 7510,
      "ram": 7511,
      "åİŁåĪĽ": 7512,
      "ä¹¦åºĹ": 7513,
      "æĺŁçļĦ": 7514,
      "çľģçļĦ": 7515,
      "åĢ¡": 7516,
      "åĪºæ¿Ģ": 7517,
      "èĳ£äºĭéķ¿": 7518,
      "æ¬¡äºİ": 7519,
      "é²¨": 7520,
      "èĲ¨æĭī": 7521,
      "æ¯ıåĳ¨": 7522,
      "æİĪæĿĥ": 7523,
      "æ²īç§¯": 7524,
      "ä¹ŀ": 7525,
      "çĽ¸åºĶ": 7526,
      "1934": 7527,
      "èĻļæŀĦ": 7528,
      "Ġå¥³": 7529,
      "æĻ¯çĤ¹": 7530,
      "åı¦ä¸Ģæĸ¹éĿ¢": 7531,
      "äº®çĽ¸": 7532,
      "åĽ½è¯Ń": 7533,
      "å¤©æĸĩåı°": 7534,
      "700": 7535,
      "ĠåĬł": 7536,
      "å¸ĸ": 7537,
      "âĢĺ": 7538,
      "åĮĸä¸º": 7539,
      "è¾ĥå¤§": 7540,
      "NBA": 7541,
      "se": 7542,
      "ç¬ĥ": 7543,
      "æĶ¶åĪ°": 7544,
      "åįĹèĩ³": 7545,
      "æĪĺæľ¯": 7546,
      "éĵģè·¯å±Ģ": 7547,
      "1935": 7548,
      "çºªå½ķçīĩ": 7549,
      "è¿Ļé¡¹": 7550,
      "éĽĨçļĦ": 7551,
      "åĽŀå¿Ĩ": 7552,
      "çĮľ": 7553,
      "å§Ĳå¦¹": 7554,
      "éĩįå¤į": 7555,
      "åĮł": 7556,
      "è°Ĳ": 7557,
      "æīĩ": 7558,
      "ç¥ŀåľ£": 7559,
      "è¿ĳä»£": 7560,
      "é£İæĻ¯": 7561,
      "èĪªçº¿": 7562,
      "æĺ¾èĳĹ": 7563,
      "Ð¼": 7564,
      "æĶ¶è´¹": 7565,
      "ata": 7566,
      "éĩĩè®¿": 7567,
      "åĪĽå§ĭäºº": 7568,
      "Ġå¯¼æ¼Ķ": 7569,
      "å¹´æĪĲä¸º": 7570,
      "ï¼ī-": 7571,
      "åħ¬æ¼Ķ": 7572,
      "åİŁåĪĻ": 7573,
      "å¥ĸæľĢä½³": 7574,
      "Ġæ²¿éĿ©": 7575,
      "ãģ²": 7576,
      "åĪ¶æĪĲ": 7577,
      "å±ħå§Ķä¼ļ": 7578,
      "èĢĥå¯Ł": 7579,
      "å¯¼å¸Ī": 7580,
      "çĹķ": 7581,
      "èį£èİ·": 7582,
      "ear": 7583,
      "åĲĮæĢ§": 7584,
      "çī©åĵģ": 7585,
      "å·´æĭī": 7586,
      "æ¬§çĽŁ": 7587,
      "èĤ¡æĿĥ": 7588,
      "èĤĮèĤī": 7589,
      "ĠèĬ±": 7590,
      "äºĭä¸Ń": 7591,
      "çªĳ": 7592,
      "åĽ´æ£ĭ": 7593,
      "ĠåİĨä»»": 7594,
      "çļĦä¸ĸçķĮ": 7595,
      "éķ¶": 7596,
      "éģ®": 7597,
      "è¢«æĿĢ": 7598,
      "åĲĮåŃ¦": 7599,
      "çİĭåĲİ": 7600,
      "éĴł": 7601,
      "é¢Ħå¤ĩ": 7602,
      "èµ¢å¾ĹäºĨ": 7603,
      "æĺĨèĻ«": 7604,
      "ä¸įçŁ¥": 7605,
      "ä¸ĭæĸ¹": 7606,
      "é»ĳé¾Ļæ±Ł": 7607,
      "æķ·": 7608,
      "èĮĥåĽ´åĨħ": 7609,
      "Ġè¡ĮæĶ¿åĮºåĪĴ": 7610,
      "çº±": 7611,
      "åĽŃåĮº": 7612,
      "ìĿ": 7613,
      "è¡Įäºº": 7614,
      "çļĦä¸į": 7615,
      "æľĪèµ·": 7616,
      "æ¼Ķèīº": 7617,
      "éĶ¥": 7618,
      "ä¹¡æĿĳ": 7619,
      "ä½ĲèĹ¤": 7620,
      "EM": 7621,
      "çļĦåĪĨ": 7622,
      "ä¸Ĭæ¸¸": 7623,
      "æĴŃæĺł": 7624,
      "åĵŃ": 7625,
      "çī¹æĢ§": 7626,
      "æĴĳ": 7627,
      "è¿ªå£«": 7628,
      "çĽĨåľ°": 7629,
      "ĠåĵĪ": 7630,
      "ä¹Łæ²¡æľī": 7631,
      "ï¼ĪãĢĬ": 7632,
      "è¯¥æł¡": 7633,
      "äº¤æ±ĩ": 7634,
      "ma": 7635,
      "Ġ#": 7636,
      "æīĺé©¬æĸ¯": 7637,
      "é¥®é£Ł": 7638,
      "å±ķçİ°": 7639,
      "çĮ©": 7640,
      "è´¢äº§": 7641,
      "å¹´æ¯ķä¸ļäºİ": 7642,
      "åĽļ": 7643,
      "å°§": 7644,
      "åħ¬åŃĲ": 7645,
      "åı¯æĺ¯": 7646,
      "åĲĳè¥¿": 7647,
      "æ»ĭ": 7648,
      "æĽ¿ä»£": 7649,
      "æĢİ": 7650,
      "ä»»æķĻ": 7651,
      "ä»£è¡¨å¤§ä¼ļ": 7652,
      "æ¨¡æĭŁ": 7653,
      "çģµéŃĤ": 7654,
      "äºĮåįģåİħ": 7655,
      "åı¸ä»¤éĥ¨": 7656,
      "yn": 7657,
      "æĺ¯ä»İ": 7658,
      "åĲİåľ¨": 7659,
      "åľ°å½¢": 7660,
      "å¾·æĦıå¿Ĺ": 7661,
      "åı¸æľº": 7662,
      "è¶³æĢ»": 7663,
      "èı©èĲ¨": 7664,
      "ii": 7665,
      "å±¡": 7666,
      "çĽ¸è¾ĥ": 7667,
      "å¸¸è§Ħ": 7668,
      "çĳ°": 7669,
      "æľīçĿĢ": 7670,
      "è¢«åıĳçİ°": 7671,
      "å·Ŀåİ¿": 7672,
      "èĢģæĿ¿": 7673,
      "èģĶåĲĪä¼ļ": 7674,
      "çļĦæīĢæľī": 7675,
      "ä¸ªæĢ§": 7676,
      "æ±¤å§Ĩ": 7677,
      "åŃŁåĬłæĭī": 7678,
      "è¿ªå£«å°¼": 7679,
      "åħ¬å¯ĵ": 7680,
      "å·ŀéķ¿": 7681,
      "èĲ¥åħ»": 7682,
      "Ġç§ĳ": 7683,
      "çļĦé©¬": 7684,
      "æĸ¯åĴĮ": 7685,
      "ald": 7686,
      "å¼ºåº¦": 7687,
      "æĢģåº¦": 7688,
      "çħ§é¡¾": 7689,
      "èĦĬæ¤İ": 7690,
      "ans": 7691,
      "å¸¸åĬ¡": 7692,
      "Ġç¬¬åĽĽ": 7693,
      "ä¾Ħ": 7694,
      "çĲĥè¿·": 7695,
      "æĻºåĪ©": 7696,
      "Ġ1993": 7697,
      "è½¬åĲĳæŀ¶": 7698,
      "Ġä½ľè¯į": 7699,
      "åĭ¾": 7700,
      "åģľè½¦åľº": 7701,
      "å¹´ä»¥": 7702,
      "å¤§åĨĽ": 7703,
      "é©°": 7704,
      "æ³¢çī¹": 7705,
      "Ġæľ¬ç«Ļ": 7706,
      "åºıåĪĹ": 7707,
      "æĶ¶è§Ĩçİĩ": 7708,
      "æĥĳ": 7709,
      "è§Ĵåº¦": 7710,
      "å¢ŀåĬłäºĨ": 7711,
      "å¹¸ç¦ı": 7712,
      "é¼ĵåĬ±": 7713,
      "é«ĺæŀ¶": 7714,
      "ĠäºĶ": 7715,
      "ä¸Ģéĥ¨": 7716,
      "åįģåĽĽå¹´": 7717,
      "æĢ»å±Ģ": 7718,
      "ä½¿çĶ¨äºĨ": 7719,
      "è´¹çĶ¨": 7720,
      "è¡Ģç®¡": 7721,
      "æ¨¡å¼ıäº§åľ°": 7722,
      "å¥¥æĸ¯æĽ¼": 7723,
      "ÐºÐ°": 7724,
      "æŃ£ä¹ī": 7725,
      "é¦ĸåº¦": 7726,
      "è¯»èĢħ": 7727,
      "èŀºæĹĭ": 7728,
      "ä¸Ģç³»åĪĹ": 7729,
      "å¤ĸåĽ´": 7730,
      "çº¦æľī": 7731,
      "my": 7732,
      "éĥ½å¾¡åı²": 7733,
      "å¼ºçļĦ": 7734,
      "çĲīçĲĥ": 7735,
      "af": 7736,
      "äººçĶŁ": 7737,
      "ç¾İæľ¯é¦Ĩ": 7738,
      "ä»¥ä¾¿": 7739,
      "éĩİçĶŁ": 7740,
      "æħķå°¼": 7741,
      "AS": 7742,
      "ĠRo": 7743,
      "ä¼¤å®³": 7744,
      "é«ĺæł¡": 7745,
      "åĸĿ": 7746,
      "åĬŀçĲĨ": 7747,
      "çľŁäºº": 7748,
      "å¾Ļ": 7749,
      "çīĩå°¾": 7750,
      "ited": 7751,
      "å½¢æĪĲçļĦ": 7752,
      "Ġå¾Ĳ": 7753,
      "è¿Ļä¹Łæĺ¯": 7754,
      "ç»´ä¿®": 7755,
      "æİ¨æµĭ": 7756,
      "ç©¿è¿ĩ": 7757,
      "èµĽé©¬": 7758,
      "æŃ£å¾·": 7759,
      "æŃĮåī§": 7760,
      "æĹıç¾¤": 7761,
      "äººæ°ĳæ³ķéĻ¢": 7762,
      "ä¼ļè®®åĳĺ": 7763,
      "ä¸ºé£Ł": 7764,
      "ä¼Ļä¼´": 7765,
      "æĹ¥çĶ±": 7766,
      "åŃ¦éĥ¨": 7767,
      "res": 7768,
      "å¹´æĪĲç«ĭ": 7769,
      "ãĤģ": 7770,
      "æ¹ĸå¹¿": 7771,
      "é¡ºæ²»": 7772,
      "1932": 7773,
      "éĢģåĪ°": 7774,
      "AL": 7775,
      "æ°®": 7776,
      "å¾·è¯Ń": 7777,
      "åĨħæľī": 7778,
      "å¹³å®ļ": 7779,
      "ç»´ä¹Ł": 7780,
      "åĽŀåĽ½": 7781,
      "ç¼ĸåĪ¶": 7782,
      "é£ŀè¡Įåĳĺ": 7783,
      "æĵħéķ¿": 7784,
      "CC": 7785,
      "è¯¥çī©ç§įçļĦ": 7786,
      "æĸĩå¸Ŀ": 7787,
      "æī¿æĭħ": 7788,
      "åĨ³èµĽä¸Ń": 7789,
      "EN": 7790,
      "Ġä¸į": 7791,
      "Ġå£°": 7792,
      "åºĩ": 7793,
      "åīįè¿Ľ": 7794,
      "éĿ¢ä¸´": 7795,
      "è¡¥åħħ": 7796,
      "äºĳåįĹçľģ": 7797,
      "éĩĮæĺĤ": 7798,
      "å¸ĥç½®": 7799,
      "åľ£è¯ŀ": 7800,
      "éĻ¤æŃ¤": 7801,
      "ase": 7802,
      "æİ¢éĻ©": 7803,
      "ä»ĸæĽ¾": 7804,
      "å±±çļĦ": 7805,
      "æĪĺäºīä¸Ń": 7806,
      "ä¸¥æł¼": 7807,
      "å¦ĤåĲĮ": 7808,
      "ç©¿è¶Ĭ": 7809,
      "å¹´åĩºçīĪ": 7810,
      "å¤§å¸Ŀ": 7811,
      "æ³ª": 7812,
      "åĶĩ": 7813,
      "åħĪéĶĭ": 7814,
      "å®¢æĪ·": 7815,
      "å¤ıå¤©": 7816,
      "åĽŀåºĶ": 7817,
      "åľ£æ®¿": 7818,
      "èŃ¦æĸ¹": 7819,
      "çĶŁçī©åŃ¦": 7820,
      "åľ°ä¸Ńæµ·": 7821,
      "Le": 7822,
      "æŃ§": 7823,
      "èĢĮæĿ¥": 7824,
      "èĤĩ": 7825,
      "æĬ¥çº¸": 7826,
      "å¸Įå°Ķ": 7827,
      "ÃŃ": 7828,
      "âĦ": 7829,
      "æ³Į": 7830,
      "åĪĨä¹ĭä¸Ģ": 7831,
      "åįĹæĺĮ": 7832,
      "äºļçĽ®": 7833,
      "ä¾¦æİ¢": 7834,
      "ä¸ºä¸ŃåĽ½": 7835,
      "å¼ĢåĬŀ": 7836,
      "ç¼´": 7837,
      "éĽĨä½ĵ": 7838,
      "åľŁå£¤": 7839,
      "æŁĵèī²": 7840,
      "åĨĽäºº": 7841,
      "æ´¾çļĦ": 7842,
      "çĶºæĿĳ": 7843,
      "ä¸ºæľŁ": 7844,
      "ä¸ľåįĹäºļ": 7845,
      "æħķå°¼é»ĳ": 7846,
      "åľ¨è¥¿": 7847,
      "çĳļ": 7848,
      "æĿĢäºº": 7849,
      "æ¦´": 7850,
      "æĸŃå±Ĥ": 7851,
      "åĢ¼å¾Ĺ": 7852,
      "çŃĸçķ¥": 7853,
      "çºł": 7854,
      "ä¸»æķĻåº§åłĤ": 7855,
      "äºĨè®¸å¤ļ": 7856,
      "æľºåĬ¨": 7857,
      "éŁ¶": 7858,
      "æ¸ħæ°´": 7859,
      "ä»įåľ¨": 7860,
      "å¼Ĥå¸¸": 7861,
      "åİ¦éĹ¨": 7862,
      "æµĳ": 7863,
      "ç¬Ľ": 7864,
      "æ¶ĪçģŃ": 7865,
      "ä¸»ä¹īèĢħ": 7866,
      "æĶ¾éĢģ": 7867,
      "æĥ³æ³ķ": 7868,
      ")ï¼Ī": 7869,
      "çļĦåĽĽ": 7870,
      "çħĮ": 7871,
      "è¿ģç§»": 7872,
      "è°ĪåĪ¤": 7873,
      "åħĭåĪ©": 7874,
      "å¦¾": 7875,
      "æ¯įèĪ°": 7876,
      "ä¼¦å¤ļ": 7877,
      "èĸª": 7878,
      "ç»´ä¹Łçº³": 7879,
      "åĬ£": 7880,
      "èĳµ": 7881,
      "ä¿¡å¾Ĵ": 7882,
      "å¼Ģå§ĭåľ¨": 7883,
      "æľªæľī": 7884,
      "åĭĴæĸ¯": 7885,
      "æ·»åĬł": 7886,
      "ä¼ŀ": 7887,
      "å®¶ä¹¡": 7888,
      "åĨħèĴĻåı¤": 7889,
      "åı¤å±ĭ": 7890,
      "åĲĦç±»": 7891,
      "ä¸ŃåįİèģĮæ£Ĵ": 7892,
      "å«¡": 7893,
      "èķĥ": 7894,
      "èĢ¶å¾ĭ": 7895,
      "ä¸ĢæĶ¯": 7896,
      "äººä¸º": 7897,
      "åĪĨåī²": 7898,
      "åħĭéĽ·": 7899,
      "è¿Ļåľº": 7900,
      "ank": 7901,
      "æīĺå°Ķ": 7902,
      "çī§å¸Ī": 7903,
      "æĩ¿": 7904,
      "3000": 7905,
      "æŃ£ç¡®": 7906,
      "æĮĩç¤º": 7907,
      "çĶ±è¯¥": 7908,
      "æ¶¡": 7909,
      "åħµéĥ¨": 7910,
      "å®°çĽ¸": 7911,
      "ward": 7912,
      "ys": 7913,
      "åĿŁ": 7914,
      "çİĽä¸½äºļ": 7915,
      "ç§ĺä¹¦éķ¿": 7916,
      "eph": 7917,
      "æĺ¯ä¸ºäºĨ": 7918,
      "çłĶåĪ¶": 7919,
      "è·µ": 7920,
      "çĻ»è®°": 7921,
      "åıĭå¥½": 7922,
      "é¡ºåºı": 7923,
      "Ġ1992": 7924,
      "æģĭçĪ±": 7925,
      "äºļç¾İå°¼äºļ": 7926,
      "çļĦåľ°åĮº": 7927,
      "çľĭè§ģ": 7928,
      "èŃ¦åĳĬ": 7929,
      "å°¸ä½ĵ": 7930,
      "ä½įçļĦ": 7931,
      "ãĥĸ": 7932,
      "âĢĿï¼ī": 7933,
      "æ¢ĵ": 7934,
      "æīŃ": 7935,
      "è¿ĺåľ¨": 7936,
      "äºīå¤º": 7937,
      "èĲ¨åħĭæ£®": 7938,
      "åıĺå½¢": 7939,
      "èĪªç©ºåħ¬åı¸": 7940,
      "Ġ1987": 7941,
      "è¶ħçº§èģĶèµĽ": 7942,
      "co": 7943,
      "å½Ĺ": 7944,
      "ä¸Ĭæĸ¹": 7945,
      "ä¸»åĶ±": 7946,
      "åħ¶ä¸º": 7947,
      "èº²": 7948,
      "åĻ¬": 7949,
      "ç¿Įå¹´": 7950,
      "éĹ¯": 7951,
      "å¤ļæł·": 7952,
      "æĽ¾è¢«": 7953,
      "åĵĪå°Ķæ»¨": 7954,
      "åĳĺå¤ĸéĥİ": 7955,
      "ä¸Ĭåľº": 7956,
      "è·¯å¾·": 7957,
      "äºĮå±Ĥ": 7958,
      "ä¿ĿæĬ¤åĮº": 7959,
      "Ġå¸ĥ": 7960,
      "1918": 7961,
      "åįģäºĶå¹´": 7962,
      "æ¸ħæ¥ļ": 7963,
      "æī§æķĻ": 7964,
      "ana": 7965,
      "èı±": 7966,
      "åĨįè½¬": 7967,
      "ç´¢æģ©": 7968,
      "è¾½å®ģçľģ": 7969,
      "ç¬¬åįģ": 7970,
      "è®¤åı¯": 7971,
      "çģ«è½¦ç«Ļ": 7972,
      "æĶ»åħ¥": 7973,
      "ä¹ĭä¹±": 7974,
      "æ·Ģ": 7975,
      "çº³å¾·": 7976,
      "å±ħä½ıåľ¨": 7977,
      "Ġçº¢": 7978,
      "éĩįè§Ĩ": 7979,
      "éħ±": 7980,
      "åį°ç¬¬": 7981,
      "åĽ´ç»ķ": 7982,
      "âĢĶâĢĶãĢĬ": 7983,
      "è¯ĳä¸º": 7984,
      "é©¬æģ©": 7985,
      "çķľ": 7986,
      "åĲīä»ĸ": 7987,
      "å·¦ç¿¼": 7988,
      "ä½İäºİ": 7989,
      "çŁŃç¯ĩ": 7990,
      "æĺ¯èĭ±åĽ½": 7991,
      "1500": 7992,
      "è¡ĹåºĦ": 7993,
      "åĲİæĿ¥çļĦ": 7994,
      "æĹ§åĿĢ": 7995,
      "çĬ¹å¤ªäºº": 7996,
      "Ġæ±Ł": 7997,
      "åĴĮä»ĸçļĦ": 7998,
      "æľºæŀª": 7999,
      "æĭ¿çł´": 8000,
      "ç¬¬ä¸Ģæ¬¡ä¸ĸçķĮå¤§æĪĺ": 8001,
      "Ġåħ«": 8002,
      "æĿĳæ°ĳ": 8003,
      "å¥ĸçīĮ": 8004,
      "ve": 8005,
      "å¹´çĲĥåŃ£": 8006,
      "èµĽåĨłåĨĽ": 8007,
      "è¿Ļéĥ¨": 8008,
      "ç¦§": 8009,
      "æİ¥æĶ¶": 8010,
      "éħįå¤ĩ": 8011,
      "éķľå¤´": 8012,
      "ĠèĢĮ": 8013,
      "ä¸¢": 8014,
      "ä¸Ģå±Ĥ": 8015,
      "1919": 8016,
      "åŃĲåħ¬åı¸": 8017,
      "ä¸ĭæ¸¸": 8018,
      "è¾ĥä½İ": 8019,
      "é±¼éĽ·": 8020,
      "ä½ĵèĤ²é¦Ĩ": 8021,
      "Ġä½ķ": 8022,
      "ä¸ľåĮº": 8023,
      "åħĭåĬ³": 8024,
      "æĭ¿çł´ä»ĳ": 8025,
      "åħ¨åı°": 8026,
      "èĬĤå¥ı": 8027,
      "çĶ²åŁº": 8028,
      "ä¸ĬéĿ¢": 8029,
      "åĨľåľº": 8030,
      "å½Ĵç±»": 8031,
      "éĺ¶çº§": 8032,
      "Ġï¼ī": 8033,
      "å¹¶æĹł": 8034,
      "æ³ķä»¤": 8035,
      "æ°¸è¿ľ": 8036,
      "lex": 8037,
      "ç¬¦åı·": 8038,
      "çģ°èī²": 8039,
      "çĽĴ": 8040,
      "åĪ©çī©": 8041,
      "æ»¤": 8042,
      "çĶ·äºº": 8043,
      "ĠâĨĴ": 8044,
      "å¥ķ": 8045,
      "ä¸»äºº": 8046,
      "æĮº": 8047,
      "æ¼Ĩ": 8048,
      "åĪ¶åĵģ": 8049,
      "è£¸": 8050,
      "åĪĿå¹´": 8051,
      "ç¦»å©ļ": 8052,
      "åºĦæĿĳ": 8053,
      "Ġæ³ķåĽ½": 8054,
      "å£¬": 8055,
      "oll": 8056,
      "ä½Ľç½ĹéĩĮè¾¾": 8057,
      "æ»´": 8058,
      "ĠæĹł": 8059,
      "å¤§æ°Ķ": 8060,
      "å¦Ĩ": 8061,
      "ç§ĳä¼ļè¯ķ": 8062,
      "æĪļ": 8063,
      "èľĺ": 8064,
      "112": 8065,
      "ç³ķ": 8066,
      "åıĤè®®éĻ¢": 8067,
      "è´¹åŁİ": 8068,
      "LE": 8069,
      "åľ¨ä¸Ģä¸ª": 8070,
      "ä¸įåıĺ": 8071,
      "åĵº": 8072,
      "ä¸ľäºļ": 8073,
      "è·Į": 8074,
      "èĢ¶å¤«": 8075,
      "Ġåı¦": 8076,
      "ç»¥": 8077,
      "å¯¹æĪĺ": 8078,
      "å¤©ä½ĵ": 8079,
      "ç¼¸": 8080,
      "å·´èµ«": 8081,
      "åĩºçİ°çļĦ": 8082,
      "é¢Ħç®Ĺ": 8083,
      "éĢĶå¾Ħ": 8084,
      "åĭĩå£«": 8085,
      "çĦ°": 8086,
      "è¡Ģæ¶²": 8087,
      "å®ĥä»¬çļĦ": 8088,
      "ä¸įå¾Ĺä¸į": 8089,
      "å°Ĩäºİ": 8090,
      "å¤ĸè§Ĥ": 8091,
      "æł¼æĭīæĸ¯": 8092,
      "ç»Ļäºĭä¸Ń": 8093,
      "æĬĢå·§": 8094,
      "èİ±èĮµ": 8095,
      "å¯Įæ±Ĺ": 8096,
      "å¯»æ±Ĥ": 8097,
      "è¡įçĶŁ": 8098,
      "ĠåĽ½å®¶éĺŁ": 8099,
      "çļĦè¥¿": 8100,
      "å¹´ä¸Ń": 8101,
      "å¯ħ": 8102,
      "æ¬ł": 8103,
      "åĪ¶åĬ¨": 8104,
      "ä¸Ńåľº": 8105,
      "èĭ¹": 8106,
      "éªļ": 8107,
      "æĻºèĥ½": 8108,
      "åį°ç¬¬å®ī": 8109,
      "ĠQ": 8110,
      "è°£": 8111,
      "è¿Ľè¡ĮçļĦ": 8112,
      "ä¹łæĥ¯": 8113,
      "ä¼Ĳåħĭ": 8114,
      "ç²®é£Ł": 8115,
      "ç¬ł": 8116,
      "åĲįåı¤å±ĭ": 8117,
      "å¹´æľŁéĹ´": 8118,
      "è¿ŀç»ĵ": 8119,
      "åĳ¨åĪĬ": 8120,
      "ä¸ģçĽ®": 8121,
      "äºĭå®ŀä¸Ĭ": 8122,
      "å¸ĤæĶ¿åºľ": 8123,
      "åĽ¢éķ¿": 8124,
      "çĶ²çº§èģĶèµĽ": 8125,
      "æ©ĺ": 8126,
      "èľĺèĽĽ": 8127,
      "èµĶ": 8128,
      "åĲİæĸ¹": 8129,
      "æĸ°åĮº": 8130,
      "éħĭ": 8131,
      "æıĲè®®": 8132,
      "åĪĻæľī": 8133,
      "ä¸Ģå¤©": 8134,
      "ä¸»ç®¡": 8135,
      "æµģåĬ¨": 8136,
      "èģĮåĳĺ": 8137,
      "å¤įæ´»": 8138,
      "éĺ²ç©º": 8139,
      "èĭ±å°º": 8140,
      "é¦ĸåºľ": 8141,
      "è§ĦèĮĥ": 8142,
      "âĦĥ": 8143,
      "ean": 8144,
      "ress": 8145,
      "é»ı": 8146,
      "ç»´æĭī": 8147,
      "å½ķå½±": 8148,
      "æ¯ıæ¬¡": 8149,
      "ç§ģç«ĭ": 8150,
      "BO": 8151,
      "åĿŀ": 8152,
      "é¥¶": 8153,
      "åŀĭæľºè½¦": 8154,
      "åŀĭåı·": 8155,
      "ork": 8156,
      "ä¹ĭéĻħ": 8157,
      "å½±å±ķ": 8158,
      "åħ±è®¡": 8159,
      "è®¸åı¯": 8160,
      "Ġæ³¨": 8161,
      "æīĭä¸Ń": 8162,
      "ä¼ĬåĪ©": 8163,
      "å©ļç¤¼": 8164,
      "å±±è¥¿çľģ": 8165,
      "æĹ¨åľ¨": 8166,
      "æľºåĻ¨äºº": 8167,
      "åĨĽåľ¨": 8168,
      "èĩ´åĬĽ": 8169,
      "é¢Ħæµĭ": 8170,
      "æĵ¦": 8171,
      "Î¿": 8172,
      "äººæ°Ķ": 8173,
      "èī²å½©": 8174,
      "å¹²éĥ¨": 8175,
      "æµªæ¼«": 8176,
      "åĪĨæĪĲ": 8177,
      "å¤ªç¥ĸ": 8178,
      "å±ĭé¡¶": 8179,
      "æł½": 8180,
      "åħ¶åŃĲ": 8181,
      "èµĽçļĦ": 8182,
      "è´¨çĸĳ": 8183,
      "æ¸¸æĪıä¸Ń": 8184,
      "åįģäºĮåİħ": 8185,
      "åĪ©çī©æµ¦": 8186,
      "åľ¨ä»ĸçļĦ": 8187,
      "çĤ¹çļĦ": 8188,
      "æ´»æĢ§": 8189,
      "éĻĲå®ļ": 8190,
      "å¤ºåıĸ": 8191,
      "åŃ¦åĽŃ": 8192,
      "åĬłæĸ¯": 8193,
      "åŀĭæŁ´æ²¹æľºè½¦": 8194,
      "æķĻèĤ²éĥ¨": 8195,
      "å§Ĳå§Ĳ": 8196,
      "ount": 8197,
      "Ñĭ": 8198,
      "ãĥ§": 8199,
      "æľºç»Ħ": 8200,
      "ä¸¤æĿ¡": 8201,
      "æĺ¯ä¸Ģå®¶": 8202,
      "å¼Ĺåħ°": 8203,
      "åĪĩå°Ķ": 8204,
      "1903": 8205,
      "åıĳèĤ²": 8206,
      "æĹ¥æľ¬çļĦ": 8207,
      "Ġçī¹": 8208,
      "äºļå½ĵ": 8209,
      "è°¨": 8210,
      "å·¥åķĨ": 8211,
      "æ¸¸åĩ»": 8212,
      "ç»§ä½į": 8213,
      "æī§æĶ¿": 8214,
      "æııåĨĻ": 8215,
      "Ġæ¬§æ´²": 8216,
      "éľī": 8217,
      "è®¤è¯ģ": 8218,
      "ä¹ĭåĲİçļĦ": 8219,
      "Ġæ³ķ": 8220,
      "éķ¿æĺ¥": 8221,
      "å¯¹ç§°": 8222,
      "çĽ´å±ŀ": 8223,
      "å¨ģå°¼æĸ¯": 8224,
      "äºīåıĸ": 8225,
      "å¹´åº¦æľĢä½³": 8226,
      "IR": 8227,
      "æľīä¸¤ä¸ª": 8228,
      "åı¯åľ¨": 8229,
      "æ£ļ": 8230,
      "æ¸ħä»£": 8231,
      "é¹¦": 8232,
      "æłªå¼ı": 8233,
      "PS": 8234,
      "Ġä½ľæĽ²": 8235,
      "éĵĿ": 8236,
      "åĸĩ": 8237,
      "å¥´éļ¶": 8238,
      "æĹ¥è¢«": 8239,
      "æĪĲæŀľ": 8240,
      "è¡Įé©¶": 8241,
      "ä¿®æŃ£": 8242,
      "åıĳçĶŁäºĨ": 8243,
      "å«©": 8244,
      "æ£ĭåŃĲ": 8245,
      "com": 8246,
      "ius": 8247,
      "Ġä¸ĸçķĮ": 8248,
      "åıĬåĲİ": 8249,
      "å¾Ĺä¸»": 8250,
      "ä¸ĵåĮº": 8251,
      "æĹ©æľŁçļĦ": 8252,
      "Ã³": 8253,
      "Ñı": 8254,
      "Ġèĭ±åĽ½": 8255,
      "åĩŃåĢŁ": 8256,
      "å¤¸": 8257,
      "åĪł": 8258,
      "åİ¥": 8259,
      "åĲıéĥ¨": 8260,
      "ĠæĪĺåĲİ": 8261,
      "è·¯ä¸Ĭ": 8262,
      "æłªå¼ıä¼ļç¤¾": 8263,
      "æĺ¯ä¸Ńåįİäººæ°ĳåħ±åĴĮåĽ½": 8264,
      "çĭ¸": 8265,
      "è½¬ä¸º": 8266,
      "éħįä¹Ĳ": 8267,
      "å»¶ç»Ń": 8268,
      "ç¡¬æ£ĺ": 8269,
      "åĩºæĿ¥çļĦ": 8270,
      "éĽ¯": 8271,
      "æ¬º": 8272,
      "è¯´æĺ¯": 8273,
      "çĹħéĢĿ": 8274,
      "illiam": 8275,
      "ç¡ķå£«åŃ¦ä½į": 8276,
      "å¸ĪèĮĥå¤§åŃ¦": 8277,
      "ĠéĿĴ": 8278,
      "ä¿±": 8279,
      "ä¸»åĬ¨": 8280,
      "å§ĭäºİ": 8281,
      "çĳ¶": 8282,
      "ĠBl": 8283,
      "çıĬçĳļ": 8284,
      "èĲ¨æĸ¯å·ŀ": 8285,
      "ail": 8286,
      "å¹´çĶµå½±": 8287,
      "éģĵçļĦ": 8288,
      "å½ķåĪ¶": 8289,
      "è¯ºè´Ŀå°Ķ": 8290,
      "èįīåİŁ": 8291,
      "åĲįèªī": 8292,
      "æ°´åŁŁ": 8293,
      "æľĽè¿ľ": 8294,
      "æĭľåįł": 8295,
      "éĩĩçĶ¨äºĨ": 8296,
      "ç»ŃéĽĨ": 8297,
      "é¢ĺæĿĲ": 8298,
      "ä¾Ŀèµĸ": 8299,
      "çİ«çĳ°": 8300,
      "ein": 8301,
      "å¹´ä»¥æĿ¥": 8302,
      "çĤ³": 8303,
      "å½¢çļĦ": 8304,
      "çİĽæł¼": 8305,
      "éĢłæĪĲçļĦ": 8306,
      "æĽ¹æĵį": 8307,
      "ru": 8308,
      "Ġåı¦å¤ĸ": 8309,
      "æĸ¯åĽ¾": 8310,
      "çĲĨçĶ±": 8311,
      "ä½Ĩåį´": 8312,
      "è§Ĥçľĭ": 8313,
      "è¯ºæĽ¼": 8314,
      "IG": 8315,
      "åĽ¢çļĦ": 8316,
      "å®ĥåľ¨": 8317,
      "é»Ħæ²³": 8318,
      "éĴ¢éĵģ": 8319,
      "ç¿¡ç¿łåı°": 8320,
      "Fran": 8321,
      "å·¥éĥ¨": 8322,
      "å£°æĺİ": 8323,
      "ä¼ģåĽ¾": 8324,
      "åĪ©çļĦ": 8325,
      "èĲĮ": 8326,
      "é©¬åĬĽ": 8327,
      "éĺŁåľ¨": 8328,
      "ç¡ħ": 8329,
      "ç¤ºèĮĥ": 8330,
      "åĢ¾åĲĳ": 8331,
      "çĥ¦": 8332,
      "è¯ĨåĪ«": 8333,
      "El": 8334,
      "1928": 8335,
      "ä¹ĭåľ°": 8336,
      "è¿ĻæĹ¶": 8337,
      "æĽ¾ä¸º": 8338,
      "æĹ©åľ¨": 8339,
      "å®½åº¦": 8340,
      "éĻķè¥¿çľģ": 8341,
      "CH": 8342,
      "åĲĮæŃ¥": 8343,
      "æĢ»æķĻåĮº": 8344,
      "å¥¹æĺ¯": 8345,
      "è½¬æĬķ": 8346,
      "å¹´äºİ": 8347,
      "åŃ¦ç³»": 8348,
      "åįģåħŃå¹´": 8349,
      "ä¼Ĭæĭīåħĭ": 8350,
      "çĶŁæ´»åľ¨": 8351,
      "åĪĹåĩº": 8352,
      "ĠMus": 8353,
      "å®£ç§°": 8354,
      "éĵ¶çīĮ": 8355,
      "æĹ¥ä¸¾è¡Į": 8356,
      "è´ª": 8357,
      "çº¿ä¸Ĭ": 8358,
      "çĻ¸": 8359,
      "åİŁåŀĭ": 8360,
      "æĳĺ": 8361,
      "éĽħåĲĦ": 8362,
      "ç»Ŀå¯¹": 8363,
      "Play": 8364,
      "TA": 8365,
      "èĩªæŃ¤": 8366,
      "å½¢çĽ®": 8367,
      "åıĳçİ°äºİ": 8368,
      "ek": 8369,
      "æĹ¥å¸¸": 8370,
      "åĪ°çļĦ": 8371,
      "æĻ®æĭī": 8372,
      "olog": 8373,
      "DS": 8374,
      "åīĮ": 8375,
      "çº³æĸ¯": 8376,
      "å¼ºå¤§çļĦ": 8377,
      "èĤ¿çĺ¤": 8378,
      "æľĽè¿ľéķľ": 8379,
      "Ġæ²Ļ": 8380,
      "æĹ¥åıĳè¡Į": 8381,
      "ä¸ľæ±ī": 8382,
      "å°Ĩä»ĸ": 8383,
      "æ··åĩĿ": 8384,
      "å®¿èĪį": 8385,
      "æŀ¢æľº": 8386,
      "ä¼ļè®¡": 8387,
      "çĳľ": 8388,
      "ç»§ä»»": 8389,
      "éĥĳå·ŀ": 8390,
      "éĩĮéĿ¢": 8391,
      "éĴĻ": 8392,
      "ç¾İåĽ½æµ·åĨĽ": 8393,
      "æ·¡æ°´": 8394,
      "åıĤè°ĭéķ¿": 8395,
      "å¡Į": 8396,
      "éļĶç¦»": 8397,
      "è¯¥çī©ç§įçļĦæ¨¡å¼ıäº§åľ°": 8398,
      "çĭ¬çī¹çļĦ": 8399,
      "åģĩè®¾": 8400,
      "å°±è¯»äºİ": 8401,
      "Ġæ¢ģ": 8402,
      "çĶ¨ä»¥": 8403,
      "ä»£çĽ®": 8404,
      "åİŁä½ıæ°ĳ": 8405,
      "åĽĽå¤§": 8406,
      "é¦ĸé¢Ĩ": 8407,
      "æĦ¿æĦı": 8408,
      "å¤§ä½¿é¦Ĩ": 8409,
      "MS": 8410,
      "ĠåĪĿ": 8411,
      "æľĢæľī": 8412,
      "ç¼Ķ": 8413,
      "éĩįç»Ħ": 8414,
      "æĽ´æį¢": 8415,
      "è§Ĥèµı": 8416,
      "æĲŃæ¡£": 8417,
      "çļĦåľ°ä½į": 8418,
      "ç°§": 8419,
      "çļĦæľºä¼ļ": 8420,
      "1900": 8421,
      "ä¹ĲåĿĽ": 8422,
      "çº³åħ¥": 8423,
      "ä¸Ńå¿ĥçļĦ": 8424,
      "äºĴåĬ¨": 8425,
      "NG": 8426,
      "æľĶ": 8427,
      "ä¸Ģåıª": 8428,
      "ä¸ºæĸ°": 8429,
      "åĲįåı«": 8430,
      "è¥¿åĮº": 8431,
      "éĺ¿å¯Įæ±Ĺ": 8432,
      "éª¸": 8433,
      "åħĭæĸ¯åĿ¦": 8434,
      "çļĦåĲįç§°": 8435,
      "è¯Ľ": 8436,
      "éĽģ": 8437,
      "éĽĨåĽ¢æľīéĻĲåħ¬åı¸": 8438,
      "åĬ²æŃĮ": 8439,
      "PC": 8440,
      "ç§ĳè¿Ľå£«": 8441,
      "å°¼æ³Ĭ": 8442,
      "ä¿ĿåĬł": 8443,
      "å°Ħçº¿": 8444,
      "å·¥ä½ľäººåĳĺ": 8445,
      "å§Ķåĳĺä¼ļå§Ķåĳĺ": 8446,
      "Ġ1991": 8447,
      "å¦Īå¦Ī": 8448,
      "ä¹ĭåĲį": 8449,
      "æİ¥ä»»": 8450,
      "çĵ£": 8451,
      "ä¼¦æĸ¯": 8452,
      "æ¶Īéĺ²": 8453,
      "è¯¸èĳĽ": 8454,
      "ä¼ĳæģ¯": 8455,
      "TVB": 8456,
      "ES": 8457,
      "çī¹çĥĪ": 8458,
      "æĢ§åĴĮ": 8459,
      "æł¹æľ¬": 8460,
      "Ã¤": 8461,
      "ä¸İæŃ¤": 8462,
      "å¾·å·Ŀ": 8463,
      "åīįæĿ¥": 8464,
      "ç»ĵå±Ģ": 8465,
      "åŃ£èĬĤ": 8466,
      "å§Ķä»»": 8467,
      "åį°è±¡": 8468,
      "èĴ¸æ±½": 8469,
      "ç¿°æŀĹéĻ¢": 8470,
      "Ã¶": 8471,
      "çİ°å·²": 8472,
      "æĪĺç»©": 8473,
      "åĸ»": 8474,
      "åķĨåľº": 8475,
      "ä¸ģåł¡": 8476,
      "æĪĲç«ĭäºĨ": 8477,
      "å§ĵæ°ı": 8478,
      "å±ıä¸ľ": 8479,
      "ĠåİĨ": 8480,
      "çļĦå¦»åŃĲ": 8481,
      "åĬłåĭĴ": 8482,
      "ä½Ĩä¸į": 8483,
      "æķ°åįģ": 8484,
      "åħŃä¸ª": 8485,
      "ä»ħæ¬¡äºİ": 8486,
      "ç»ĥä¹ł": 8487,
      "è°ĭæĿĢ": 8488,
      "ä¹ĭä¸Ĭ": 8489,
      "åıĤæĶ¿": 8490,
      "æīĵå¼Ģ": 8491,
      "æĴŃåĩºçļĦ": 8492,
      "å¯ĨåĪĩ": 8493,
      "æĻ¶ä½ĵ": 8494,
      "å¼§": 8495,
      "æŁľ": 8496,
      "ç»Ħç»ĩçļĦ": 8497,
      "è¿½æ±Ĥ": 8498,
      "å°ºå¯¸": 8499,
      "éĢīæĭĶ": 8500,
      "æłĸæģ¯åľ¨": 8501,
      "èħĵçī¹çĥĪ": 8502,
      "ĠæĪªèĩ³": 8503,
      "åľ¨ä½į": 8504,
      "ä¸ľè·¯": 8505,
      "æĺŁéĻħ": 8506,
      "èĤ¡ä¸ľ": 8507,
      "ä¼ĲåĪ©äºļ": 8508,
      "çĭ®åŃĲ": 8509,
      "æ··åĩĿåľŁ": 8510,
      "ä¹ŁåĽłæŃ¤": 8511,
      "åŀ©": 8512,
      "å°±æľī": 8513,
      "è°ĥèĬĤ": 8514,
      "éĤ£ä¸ª": 8515,
      "eter": 8516,
      "åı²å¯Ĩæĸ¯": 8517,
      "çļĦç¬¬ä¸ī": 8518,
      "æĹ¥è¯Ń": 8519,
      "1929": 8520,
      "æĹ¶éĴĪ": 8521,
      "ance": 8522,
      "åĥıæĺ¯": 8523,
      "Ġç»ıåİĨ": 8524,
      "ert": 8525,
      "ins": 8526,
      "æĻ®ç½Ĺ": 8527,
      "æ¸ħåįİ": 8528,
      "åĮ»å¸Ī": 8529,
      "èĽ®": 8530,
      "æĲºå¸¦": 8531,
      "å¶": 8532,
      "å½¬": 8533,
      "åĩºåĵģ": 8534,
      "çķĮçļĦ": 8535,
      "æ¸ħçľŁ": 8536,
      "é¥ŃåºĹ": 8537,
      "çĽ²": 8538,
      "1922": 8539,
      "ç½©": 8540,
      "åħ¶é¡¿": 8541,
      "int": 8542,
      "éĽĨåĲĪ": 8543,
      "èº«äº¡": 8544,
      "å®Įç¾İ": 8545,
      "ade": 8546,
      "Ġst": 8547,
      "çļĦç»ĵæŀľ": 8548,
      "åľ¨åĮĹ": 8549,
      "ä¹ĲåĽŃ": 8550,
      "æµģéĩı": 8551,
      "è´¹å°Ķ": 8552,
      "ç§»å±ħ": 8553,
      "åĩºèī²": 8554,
      "é«ĺåİŁ": 8555,
      "æĶ¿åįı": 8556,
      "æĿĳåĲĪå¹¶ä¸º": 8557,
      "æ²³éģĵ": 8558,
      "å¥¥åı¤": 8559,
      "çĻ¾å¹´": 8560,
      "ĠçĶŁæĢģ": 8561,
      "åİ»ä¸ĸåĲİ": 8562,
      "å¸ĥç½Ĺ": 8563,
      "å¤ªå®Ĺ": 8564,
      "æłĩé¢ĺ": 8565,
      "éģŃåıĹ": 8566,
      "æĭľåįłåºŃ": 8567,
      "ren": 8568,
      "éĢļçŁ¥": 8569,
      "åħīè°±": 8570,
      "éĵģè·¯è½¦ç«Ļ": 8571,
      "ç¥Ńç¥Ģ": 8572,
      "ç«ĭæĸ¹ç±³": 8573,
      "ç¼ĸåĨĻ": 8574,
      "å©·": 8575,
      "åĴĮå¤§": 8576,
      "æĺİæĺ¾çļĦ": 8577,
      "Ìĥ": 8578,
      "âĢ»": 8579,
      "è¥¿è·¯": 8580,
      "çĩ¥": 8581,
      "åıĸå¾ĹäºĨ": 8582,
      "Ġäººçī©": 8583,
      "å¹´ä¸Ĭæĺł": 8584,
      "åİī": 8585,
      "åįĹè·¯": 8586,
      "åİ¿åŁİ": 8587,
      "åĪĹå®ģ": 8588,
      "æīĭæŀª": 8589,
      "å·´åĭĴ": 8590,
      "å°±ä»»": 8591,
      "è¿ľå¾ģ": 8592,
      "çĤ®åħµ": 8593,
      "å¼ĢåĲ¯": 8594,
      "èģĶåĨĽ": 8595,
      "çļĦåŃ¦çĶŁ": 8596,
      "ç»°": 8597,
      "éĴ©": 8598,
      "æ¤Ń": 8599,
      "ä¸īä½į": 8600,
      "ãĥİ": 8601,
      "å¿«ä¹Ĳ": 8602,
      "åĨ·åį´": 8603,
      "sch": 8604,
      "åħ°å·ŀ": 8605,
      "Î²": 8606,
      "å¹¶æľī": 8607,
      "é¦ĸå°Ķ": 8608,
      "ç©Ĩç½ķ": 8609,
      "åŁł": 8610,
      "èİº": 8611,
      "çİĭå®¤": 8612,
      "éħ°": 8613,
      "æĺ¯å¤§": 8614,
      "æĹ¶åĪ»": 8615,
      "åįĹå®ĭ": 8616,
      "é¦ĸæī¹": 8617,
      "åĳ½è¿Ĳ": 8618,
      "ç»ıçºª": 8619,
      "æŃ¤åī§": 8620,
      "ĠãĢģ": 8621,
      "æĺ¯ä¸į": 8622,
      "éĢ¾": 8623,
      "1927": 8624,
      "red": 8625,
      "åĬ²çĪĨ": 8626,
      "Ġåıĳè¡Į": 8627,
      "çļĦå±±": 8628,
      "åĲĹ": 8629,
      "çºĤ": 8630,
      "éĽ·è¾¾": 8631,
      "è°¢å°Ķ": 8632,
      "çĩĥçĥ§": 8633,
      "ç£·éħ¸": 8634,
      "fl": 8635,
      "çĶŁç´ł": 8636,
      "æīĢéľĢ": 8637,
      "ç§°ä¹ĭä¸º": 8638,
      "çªģåĩ»": 8639,
      "ç±»ä¼¼çļĦ": 8640,
      "ãĥĳ": 8641,
      "é©¬åĮ¹": 8642,
      "ãĤį": 8643,
      "é¦ĸæĺł": 8644,
      "éŁ³ä¹Ĳä¼ļ": 8645,
      "äº§çĶŁäºĨ": 8646,
      "ä¸Ģå¼Ģå§ĭ": 8647,
      "åĵ©": 8648,
      "ä»£çłģ": 8649,
      "çĻ½åŀ©": 8650,
      "åŃĺåľ¨äºİ": 8651,
      "çļĦæĹ¥æľ¬": 8652,
      "åĽ½ä¸Ń": 8653,
      "æľ¬åĲį": 8654,
      "æľ¬æĿ¥": 8655,
      "å¾·åħĭ": 8656,
      "ä½įäºİè¯¥": 8657,
      "Ġçº¦ç¿°": 8658,
      "éºĵ": 8659,
      "æĭħå¿ĥ": 8660,
      "æĻ¯è§Ĥ": 8661,
      "èļģ": 8662,
      "And": 8663,
      "åľ¨å½ĵæĹ¶": 8664,
      "ä¸ĢçŃī": 8665,
      "åĨħäºļ": 8666,
      "å¹³å®ī": 8667,
      "å¹¸åŃĺ": 8668,
      "éŀį": 8669,
      "Bl": 8670,
      "FC": 8671,
      "æľĢå¤ļçļĦ": 8672,
      "çķı": 8673,
      "é²ģæĸ¯": 8674,
      "ĠPart": 8675,
      "åģļä¸º": 8676,
      "ä¼łæķĻå£«": 8677,
      "å¹´æ¬§æ´²": 8678,
      "æĭ¯": 8679,
      "æ·ĭ": 8680,
      "ä½£": 8681,
      "çī©ä½ĵ": 8682,
      "ãĤĨ": 8683,
      "çĽ¸ç»§": 8684,
      "æĹıèĩªæ²»": 8685,
      "æ´Ľä¼Ĭ": 8686,
      "å¢ŀè®¾": 8687,
      "è½¨çĶµè½¦": 8688,
      "çĶµè·¯": 8689,
      "äºĭæĥħ": 8690,
      "è¾ĥé«ĺ": 8691,
      "æĶ»åįł": 8692,
      "å®«æ®¿": 8693,
      "æ²ĥå°Ķ": 8694,
      "æĭĽçĶŁ": 8695,
      "çī©çĲĨåŃ¦": 8696,
      "1924": 8697,
      "ä¸ĬåįĬ": 8698,
      "åħ¬çº¦": 8699,
      "çŁ³å¤´": 8700,
      "è¾ĵåĩº": 8701,
      "éĵľçīĮ": 8702,
      "åįĹæŀģ": 8703,
      "æ¬¡éĥİ": 8704,
      "æ¬¡åĪĹè½¦": 8705,
      "çļĦå¤§åŀĭ": 8706,
      "çģŃäº¡": 8707,
      "åı«åģļ": 8708,
      "avid": 8709,
      "åı°åįĹå¸Ĥ": 8710,
      "Ġèĥ¡": 8711,
      "å¹¿å·ŀå¸Ĥ": 8712,
      "orld": 8713,
      "èī¯å¥½": 8714,
      "èģļéĽĨ": 8715,
      "å½¼æŃ¤": 8716,
      "æ°´ä¸Ń": 8717,
      "ild": 8718,
      "ä¸Ģéĥ¨åĪĨ": 8719,
      "éĩľ": 8720,
      "Ġ1980": 8721,
      "ç¦ıçī¹": 8722,
      "ç§ŁåĢŁ": 8723,
      "OK": 8724,
      "ĠçĻ»åľº": 8725,
      "çļĦåĽ½éĻħ": 8726,
      "å½±åĥı": 8727,
      "é¥¥": 8728,
      "æĢ»ç»ıçĲĨ": 8729,
      "èĪªç©ºæ¯įèĪ°": 8730,
      "ott": 8731,
      "åĬłåĪ©ç¦ıå°¼äºļå·ŀ": 8732,
      "Ġæ¢ħ": 8733,
      "çī¹åĮº": 8734,
      "åįģä¸ĥå¹´": 8735,
      "é²Ī": 8736,
      "æľĢåĲİçļĦ": 8737,
      "çīĽæ´¥": 8738,
      "é»ĺå¾·": 8739,
      "åĲįè¯į": 8740,
      "æŃ¤äºĭ": 8741,
      "æŃ»åİ»": 8742,
      "èĳ¡èĲĦéħĴ": 8743,
      "çĸ«èĭĹ": 8744,
      "ei": 8745,
      "å¯¹è¯Ŀ": 8746,
      "æĪĺè´¥": 8747,
      "æŃ¤åľ°": 8748,
      "å¤įä»ĩ": 8749,
      "ä¼¯æł¼": 8750,
      "ä¸¥éĩįçļĦ": 8751,
      "éĢļè¡Į": 8752,
      "ä½¿èĢħ": 8753,
      "è½¬ä»»": 8754,
      "å½»åºķ": 8755,
      "å®Įæķ´çļĦ": 8756,
      "è½°çĤ¸æľº": 8757,
      "åı¤èĢģçļĦ": 8758,
      "ä»ĸå¯¹": 8759,
      "åĬ¨å·¥": 8760,
      "å½±è¯Ħ": 8761,
      "ĠIS": 8762,
      "ä¿ĿåĬłåĪ©äºļ": 8763,
      "Ñĸ": 8764,
      "åĪĨè§£": 8765,
      "çĶµæ±ł": 8766,
      "å¤ļä¸º": 8767,
      "åĳ¨æľ«": 8768,
      "ä¸ĸçķĮçļĦ": 8769,
      "å¤±è¸ª": 8770,
      "å¤ıå¨ģ": 8771,
      "åİĦå°Ķ": 8772,
      "èı²åĪ©æĻ®": 8773,
      "US": 8774,
      "ç»İ": 8775,
      "åĮĹå¸Ĥ": 8776,
      "å½ĵæĹ¥": 8777,
      "åŃ£åĨĽ": 8778,
      "ĠSc": 8779,
      "ä¸ĸçºªæľ«": 8780,
      "Pro": 8781,
      "ä¸ºåŁºç¡Ģ": 8782,
      "ä¸īæ¬¡": 8783,
      "å¢©": 8784,
      "æĢ»äººåı£": 8785,
      "æĪĸç§°": 8786,
      "æ²³åı£": 8787,
      "è´Ŀæł¼": 8788,
      "æľĪåºķ": 8789,
      "æ°´åĪ©": 8790,
      "130": 8791,
      "çĭ¬èĩª": 8792,
      "è®¼": 8793,
      "åĬłä»¥": 8794,
      "ç²ĺ": 8795,
      "æĲŀ": 8796,
      "æı´åĬ©": 8797,
      "ĠåĽł": 8798,
      "å¸ľ": 8799,
      "æĭ¾": 8800,
      "ä¸ĭæĿ¥çļĦ": 8801,
      "åİ¿çŁ¥åİ¿": 8802,
      "åĴ¸ä¸°": 8803,
      "å°¼æ³Ĭå°Ķ": 8804,
      "å¤ıå¨ģå¤·": 8805,
      "æ¡¶": 8806,
      "æķ°çļĦ": 8807,
      "åıĳçĶŁçļĦ": 8808,
      "è¯»ä¹¦": 8809,
      "å¤ľéĹ´": 8810,
      "ç»įåħ´": 8811,
      "è¿·ä½ł": 8812,
      "é¥±": 8813,
      "å®Īå¤ĩ": 8814,
      "éĢĲæŃ¥": 8815,
      "è·ĳéģĵ": 8816,
      "éĻ¨çŁ³": 8817,
      "æĹ¶è¢«": 8818,
      "å®ļä½į": 8819,
      "é³įé±¼": 8820,
      "æº¶æ¶²": 8821,
      "RA": 8822,
      "å¹´åĬłåħ¥": 8823,
      "åľ¨åı°æ¹¾": 8824,
      "ç«ĻæĪ¿": 8825,
      "åķ¤": 8826,
      "æĬĹæĹ¥": 8827,
      "çĶŁäº§çļĦ": 8828,
      "ä¿ĺèĻı": 8829,
      "åºĲ": 8830,
      "é¹ī": 8831,
      "éĩįçĤ¹æĸĩçī©ä¿ĿæĬ¤åįķä½į": 8832,
      "åĵºä¹³": 8833,
      "åĨ¶": 8834,
      "æ¼³": 8835,
      "çº¦åħĭ": 8836,
      "ç¤¼éĥ¨": 8837,
      "à¹": 8838,
      "è°ķ": 8839,
      "ç«Ļèĩ³": 8840,
      "æīĭæ®µ": 8841,
      "çĭ©": 8842,
      "æĬĢèĥ½": 8843,
      "åįĥåı¶": 8844,
      "æ¸Ĳæ¸Ĳ": 8845,
      "La": 8846,
      "ĠæĪĲ": 8847,
      "ç§©": 8848,
      "æľīçº¿": 8849,
      "æĶ¹è£ħ": 8850,
      "èİ±æĸ¯": 8851,
      "1931": 8852,
      "æĪĲåĬŁçļĦ": 8853,
      "çŁ¿çī©": 8854,
      "own": 8855,
      "èĩªè¡Įè½¦": 8856,
      "ĠçľŁ": 8857,
      "Ġä½ľä¸º": 8858,
      "ãĢĤãĢĮ": 8859,
      "éĹµ": 8860,
      "è§ģåĪ°": 8861,
      "æ¿Ģç´ł": 8862,
      "éĻ¤æŃ¤ä¹ĭå¤ĸ": 8863,
      "Ġæ¯ĶèµĽ": 8864,
      "åľ¨æ³ķåĽ½": 8865,
      "å¨ģå°Ķæĸ¯": 8866,
      "è®¤ä¸ºæĺ¯": 8867,
      "æ·±åħ¥": 8868,
      "è¿½æº¯åĪ°": 8869,
      "Ġå¥³åŃĲ": 8870,
      "ĠéĻ¤äºĨ": 8871,
      "åľ¨åĨħ": 8872,
      "å¥³äºº": 8873,
      "æĹłéĻĲ": 8874,
      "ç¾İåĽ½äºº": 8875,
      "ç¦ıå·ŀ": 8876,
      "åħ·å¤ĩ": 8877,
      "åĨĻçľŁ": 8878,
      "éĩįåºĨå¸Ĥ": 8879,
      "èŁ¹": 8880,
      "Ġçİ°": 8881,
      "åĴ¬": 8882,
      "åŃĲå¼¹": 8883,
      "çªŁ": 8884,
      "é¢ģå¥ĸç¤¼": 8885,
      "åĤ¬åĮĸ": 8886,
      "æĢ»æĺ¯": 8887,
      "æłĳæľ¨": 8888,
      "çļĦç¬¬ä¸Ģä¸ª": 8889,
      "Station": 8890,
      "æĿ¥æºĲäºİ": 8891,
      "åľ¨è¿ĻéĩĮ": 8892,
      "Ġæ¬§": 8893,
      "åĬłçĥŃ": 8894,
      "åĽłåŃĲ": 8895,
      "ãĤ»": 8896,
      "éĶ¯": 8897,
      "eng": 8898,
      "ç¬¬äºĮä¸ª": 8899,
      "åĵĪæĭī": 8900,
      "çħ®": 8901,
      "ç£ħ": 8902,
      "è°ľ": 8903,
      "ä¸ĸçķĮå¤§èµĽ": 8904,
      "å®Ĺåº§": 8905,
      "æİ¨åĩºçļĦ": 8906,
      "ç§ī": 8907,
      "ä¾Ľå¥ī": 8908,
      "å®ĿçŁ³": 8909,
      "èĭĹæłĹ": 8910,
      "à¦": 8911,
      "éĩĳæĸ¯": 8912,
      "é»İæĺİ": 8913,
      "ä¸ĢçĶŁ": 8914,
      "å¢ħ": 8915,
      "èģĮè´£": 8916,
      "ãĥ¼ãĥ«": 8917,
      "åĿĲèĲ½": 8918,
      "Ġ;": 8919,
      "ĠåĽ½": 8920,
      "å®¦": 8921,
      "éĹ¹": 8922,
      "éĩĮå¥¥": 8923,
      "è°ı": 8924,
      "ç¦ıå°Ķ": 8925,
      "çļĦå¥³æĢ§": 8926,
      "å£ģçĶ»": 8927,
      "...": 8928,
      "ĠSchool": 8929,
      "ĠåŁĥ": 8930,
      "Ġåĩ¯": 8931,
      "è¯¥åľ°åĮº": 8932,
      "æ£į": 8933,
      "çĽŁåĨĽ": 8934,
      "RNA": 8935,
      "ner": 8936,
      "ä½Ĩä»į": 8937,
      "ç³Ĭ": 8938,
      "æł¡èĪį": 8939,
      "åĨ³è®®": 8940,
      "æŀģä¸º": 8941,
      "åĪ¶çīĩäºº": 8942,
      "ï¹": 8943,
      "çļĦå®ĺæĸ¹": 8944,
      "å¹´æĺ¥": 8945,
      "åľ¨åĮĹäº¬": 8946,
      "çī¹å°Ķ": 8947,
      "é«ĺæ¡¥": 8948,
      "ä¸ŃåĽ½ç§ĳåŃ¦éĻ¢": 8949,
      "åıįå°Ħ": 8950,
      "æ´ĭåŁº": 8951,
      "å§Ķåĳĺä¼ļä¸»å¸Ń": 8952,
      "æĽ¿è¡¥": 8953,
      "åıĳè¾¾": 8954,
      "åħīæĺİ": 8955,
      "å¿ĹæĦ¿": 8956,
      "æ´ªæ°´": 8957,
      "ç²ĴåŃĲ": 8958,
      "ç»¼èīºèĬĤçĽ®": 8959,
      "åĨ¥": 8960,
      "èĲį": 8961,
      "å°Ħæīĭ": 8962,
      "åĪ¤æĸŃ": 8963,
      "å©´åĦ¿": 8964,
      "éĵħ": 8965,
      "ç§°èµŀ": 8966,
      "åİ¿ç«ĭ": 8967,
      "1905": 8968,
      "çĽ¸è¾ĥäºİ": 8969,
      "ael": 8970,
      "Ġéº¦": 8971,
      "1923": 8972,
      "å¹¶æĪĲä¸º": 8973,
      "ä¼Ĺäºº": 8974,
      "æıĲåĩºäºĨ": 8975,
      "ĠçĶ·åŃĲ": 8976,
      "çļĦå®¶": 8977,
      "çļĦä¸ĭ": 8978,
      "éĥ¨éĥ¨éķ¿": 8979,
      "å»¿": 8980,
      "ä½ĵéªĮ": 8981,
      "å®īå¦®": 8982,
      "å¼łåįķæĽ²": 8983,
      "itt": 8984,
      "æķ´åĲĪ": 8985,
      "åĸľçĪ±": 8986,
      "Ġ1989": 8987,
      "æĦıæĢĿæĺ¯": 8988,
      "oth": 8989,
      "åĲĪèĤ¥": 8990,
      "åĪĻçĶ±": 8991,
      "ç¤¾äº¤": 8992,
      "æľĢç»Īå¹»æĥ³": 8993,
      "æĪĺäºīæľŁéĹ´": 8994,
      "Ġä¿±ä¹Ĳéĥ¨": 8995,
      "å¹´æīį": 8996,
      "æĪ¦": 8997,
      "è®½": 8998,
      "æĸ¯éĩĮ": 8999,
      "ä¹ĭæĹ¶": 9000,
      "çĶµæµģ": 9001,
      "çŃīå¾ħ": 9002,
      "èį«": 9003,
      "åħŃä¸ĸ": 9004,
      "æ¨ªæ»¨": 9005,
      "é¹¦é¹ī": 9006,
      "anc": 9007,
      "æĽ²çº¿": 9008,
      "éĽħåħ¸": 9009,
      "ç»ıè¿ĩæľ¬åľ°åĮº": 9010,
      "UN": 9011,
      "eor": 9012,
      "Ġì": 9013,
      "ä¸»æĴŃ": 9014,
      "é«ĺäºİ": 9015,
      "æĵĴ": 9016,
      "åģĩéĿ¢": 9017,
      "åįłåľ°éĿ¢ç§¯": 9018,
      "èĭ¹æŀľ": 9019,
      "ä»ĸäºº": 9020,
      "éĥ¨ç½²": 9021,
      "å¤ļé¡¹": 9022,
      "å¤ļä¼¦å¤ļ": 9023,
      "ä¸ĩå¹³æĸ¹ç±³": 9024,
      "çģµæĦŁ": 9025,
      "èħ¹éĥ¨": 9026,
      "å¹´è½»çļĦ": 9027,
      "åľ¨åīį": 9028,
      "å¤§è´¥": 9029,
      "çī©è¯Ń": 9030,
      "å±±é¡¶": 9031,
      "åı£å¾Ħ": 9032,
      "åĽŀæĿ¥": 9033,
      "ä¿¡çĶ¨": 9034,
      "æµĵåº¦": 9035,
      "æ¨¡çī¹åĦ¿": 9036,
      "IF": 9037,
      "èµ£": 9038,
      "å¹³è¡Į": 9039,
      "æĢ»åĨ³èµĽ": 9040,
      "æıĲåīį": 9041,
      "æĽ´æĺ¯": 9042,
      "æķĪçİĩ": 9043,
      "æİĮæı¡": 9044,
      "áŀ": 9045,
      "åĪĨåĮº": 9046,
      "æĪĺèĪ°": 9047,
      "é©¬åħ¶é¡¿": 9048,
      "å®ļäºİ": 9049,
      "åİŁä½ľ": 9050,
      "çľģæİ¥å£¤": 9051,
      "åĥļ": 9052,
      "çĶ±è¯¥éģĵè·¯": 9053,
      "Ġä¸ºäºĨ": 9054,
      "çļĦçĪ±": 9055,
      "çļĦæ¸¸æĪı": 9056,
      "éĻĩ": 9057,
      "ä¸īå¤§": 9058,
      "æĪĺä¸Ń": 9059,
      "åħ³èĬĤ": 9060,
      "å¸Īéķ¿": 9061,
      "ä¾Ŀçħ§": 9062,
      "Am": 9063,
      "EC": 9064,
      "EP": 9065,
      "èĥĢ": 9066,
      "çĶ°å¾Ħ": 9067,
      "ĠçĶµè§Ĩ": 9068,
      "ãĤ±": 9069,
      "å¨Ħ": 9070,
      "éĺ³åħī": 9071,
      "èµĽäºĭä¸Ń": 9072,
      "éĿ¢åĲĳ": 9073,
      "å·´ä¼ĲåĪ©äºļ": 9074,
      "è§ģäºİ": 9075,
      "å®¡æŁ¥": 9076,
      "ĠæķĻèĤ²": 9077,
      "çļĦå»ºçŃĳ": 9078,
      "çļĦè¡Įä¸º": 9079,
      "ä¸Ńä¸ĸçºª": 9080,
      "æĹ¶ç©º": 9081,
      "ä½ĵåĨħ": 9082,
      "ç¥ŀçĪ¶": 9083,
      "æĮĩçļĦæĺ¯": 9084,
      "è¯ºæĸ¯": 9085,
      "æĪ¿åŃĲ": 9086,
      "Ġä¹¡éģĵ": 9087,
      "æĺ¯æľĢ": 9088,
      "æµ·çĽĹ": 9089,
      "èµ·é£ŀ": 9090,
      "åĩ»åĩº": 9091,
      "åĪĳäºĭ": 9092,
      "æİĴåĲįç¬¬": 9093,
      "Ã¨": 9094,
      "Ġåı²": 9095,
      "éģĵå¾·": 9096,
      "å¸ĥåħ°": 9097,
      "ä¿Ŀå®ī": 9098,
      "éĩİæĿĳ": 9099,
      "çŁĽçĽ¾": 9100,
      "Ġå»º": 9101,
      "ä¸ŃåİŁ": 9102,
      "æĸ¹å½¢": 9103,
      "èº«é«ĺ": 9104,
      "åħīåŃ¦": 9105,
      "æĬ¤çħ§": 9106,
      "æ¸ħçľŁå¯º": 9107,
      "ĠçĦ¶èĢĮ": 9108,
      "å¹´ç¬¬": 9109,
      "è®¾åľ¨": 9110,
      "åĪĹé¢ł": 9111,
      "çĽ´æµģ": 9112,
      "åĿĩæľī": 9113,
      "æīĵåħ¥": 9114,
      "é¡ºæĹ¶éĴĪ": 9115,
      "è´Ńçī©": 9116,
      "Ġ1988": 9117,
      "åĩ»è´¥äºĨ": 9118,
      "ä¼Ĭæĸ¯åħ°æķĻ": 9119,
      "çļĦåħ¶ä»ĸ": 9120,
      "ä»¥åħ¶": 9121,
      "å¹¶ä¸º": 9122,
      "ä»£è°¢": 9123,
      "å¤©ç©º": 9124,
      "å§Ķä¹¦è®°": 9125,
      "å®Ĺå®¤": 9126,
      "éŁ³ä¹Ĳåī§": 9127,
      "å®ľåħ°": 9128,
      "ç±»ä¼¼äºİ": 9129,
      "è¿ĩåº¦": 9130,
      "é£İäºĳ": 9131,
      "æĮīå¯Łä½¿": 9132,
      "åŃ¢": 9133,
      "è¿Ļä¸¤ä¸ª": 9134,
      "åĽ½å®¶è¶³çĲĥéĺŁ": 9135,
      "åı¯ä»¥æĮĩ": 9136,
      "åīĳæ¡¥": 9137,
      "1912": 9138,
      "ä¹ĭåĨħ": 9139,
      "åıĳéŁ³": 9140,
      "èī®": 9141,
      "ult": 9142,
      "aj": 9143,
      "æľ¬åī§": 9144,
      "è¢«ä»»åĳ½ä¸º": 9145,
      "åįĹæµ·": 9146,
      "åĪĹæĸ¯": 9147,
      "ç»Łæ²»èĢħ": 9148,
      "çļĦåīįèº«": 9149,
      "çĶµæ°ĶåĮĸ": 9150,
      "éĢ»è¾ĳ": 9151,
      "ä½ĵéķ¿åı¯è¾¾": 9152,
      "èģĶç½ĳ": 9153,
      "æİ¨çĲĨ": 9154,
      "èĳ¬äºİ": 9155,
      "Ġåį¢": 9156,
      "ãģĽ": 9157,
      "äºĭè®°": 9158,
      "çĲĨå¿µ": 9159,
      "160": 9160,
      "æŀľå®ŀ": 9161,
      "ç¼ĸåı·ä¸º": 9162,
      "çº¿æĺ¯": 9163,
      "éħµ": 9164,
      "åĵĪå¾·": 9165,
      "å¤©æĸĩåŃ¦å®¶": 9166,
      "æªĢ": 9167,
      "Ad": 9168,
      "æĹ¥èĢ³": 9169,
      "1925": 9170,
      "åĲİåıĪ": 9171,
      "çĪ½": 9172,
      "åįļè§Ī": 9173,
      "ç©Ĩç½ķé»ĺå¾·": 9174,
      "Com": 9175,
      "ef": 9176,
      "Ġæ¯ı": 9177,
      "åĲİåĽł": 9178,
      "èĭ·": 9179,
      "åĪ©å¥¥": 9180,
      "éĤ¸": 9181,
      "éª¨éª": 9182,
      "åĮĹå®ĭ": 9183,
      "å£¶": 9184,
      "æ¯ĶåĪĨ": 9185,
      "èĵī": 9186,
      "åħ±åĴĮåħļ": 9187,
      "éĥ¨æĽ²": 9188,
      "ãĥı": 9189,
      "ä¸ĩåĲ¨": 9190,
      "æ±īè¯Ń": 9191,
      "ä¾¦å¯Ł": 9192,
      "å¹´æĭħä»»": 9193,
      "ä¸Ģè·¯": 9194,
      "ä¸ºå¤§": 9195,
      "æĸ°çĸĨ": 9196,
      "å°ıé¡¹": 9197,
      "å¸ĥå±Ģ": 9198,
      "æ°´çļĦ": 9199,
      "å¸¦èĳĹ": 9200,
      "çģ«çģ¾": 9201,
      "ä¸Ńå¤®çĶµè§Ĩåı°": 9202,
      "ler": 9203,
      "ĠåĽ½å®¶": 9204,
      "ä¸İå¤§": 9205,
      "æł¡åıĭ": 9206,
      "åĮ»èį¯": 9207,
      "æĬ¤åį«": 9208,
      "åĨ²åĩ»": 9209,
      "åĪĽä½ľçļĦ": 9210,
      "æ·±åľ³å¸Ĥ": 9211,
      "ä½ľä¸ļ": 9212,
      "äºĮæľŁ": 9213,
      "åĬ²æŃĮéĩĳæĽ²": 9214,
      "æĭīçļĦ": 9215,
      "è¿ĽåĨĽ": 9216,
      "è¦ģå¡ŀ": 9217,
      "ç¨½": 9218,
      "erv": 9219,
      "è¿Ĳä¼ļ": 9220,
      "ç»Ļä»ĸ": 9221,
      "åĲ¬åĪ°": 9222,
      "åį¯": 9223,
      "å·´å¡ŀ": 9224,
      "åı¦ä¸Ģç§į": 9225,
      "åĩºå¢ĥ": 9226,
      "ç§ĳçłĶ": 9227,
      "éĥ½ä¸į": 9228,
      "é¢Ħéĺ²": 9229,
      "ĠåĽłä¸º": 9230,
      "åįĹæĬķ": 9231,
      "çĶµæ¢¯": 9232,
      "éľĸ": 9233,
      "å¤įåĲĪ": 9234,
      "ä¼įå¾·": 9235,
      "æĺĨæĺİ": 9236,
      "åĩĮæĻ¨": 9237,
      "iversity": 9238,
      "Sc": 9239,
      "åįĹåįĹ": 9240,
      "è¾ĥå°ĳ": 9241,
      "çľŁèıĮ": 9242,
      "æ´ªæŃ¦": 9243,
      "ET": 9244,
      "ä¹Ĵ": 9245,
      "çĵ¦åħ¹": 9246,
      "æģ¶éŃĶ": 9247,
      "æĭ¯æķĳ": 9248,
      "5000": 9249,
      "çľŁæŃ£çļĦ": 9250,
      "ð¬": 9251,
      "ĠéĽ·": 9252,
      "å²ļ": 9253,
      "åıįèĢĮ": 9254,
      "åĵĪçī¹": 9255,
      "æĹ©ä¸Ĭ": 9256,
      "åį°åº¦å°¼è¥¿äºļ": 9257,
      "éª¨éª¼": 9258,
      "åľ¨ä»Ĭ": 9259,
      "åħ¬ç«ĭ": 9260,
      "åıĬåħ¶ä»ĸ": 9261,
      "å½ĵä½ľ": 9262,
      "åį³åı¯": 9263,
      "åĤ²": 9264,
      "çŃĸåĪĴ": 9265,
      "Ð°Ð½": 9266,
      "çºªå¿µç¢ĳ": 9267,
      "æ»ĳéĽª": 9268,
      "ÑģÑĤ": 9269,
      "ä¸½èİİçĻ½": 9270,
      "ĠâĢĶ": 9271,
      "çļĦèĢģ": 9272,
      "æ¬¡æķ°": 9273,
      "é¦ĸä»»": 9274,
      "æıĲåĩºçļĦ": 9275,
      "oci": 9276,
      "ä¸ŃåŃ¦æł¡": 9277,
      "ä¸īå±Ĥ": 9278,
      "ĠCo": 9279,
      "åĵĪä¼Ĭ": 9280,
      "å¼ĺæ²»": 9281,
      "Ġåī¯": 9282,
      "1926": 9283,
      "æ²Ľ": 9284,
      "ä¸Ĭå°Ĩ": 9285,
      "ãĤ§": 9286,
      "å¼¹åĬ¾": 9287,
      "ĠNew": 9288,
      "çļĦèĬ±": 9289,
      "è¿ĩæ¸¡": 9290,
      "æķ°çĻ¾": 9291,
      "æ¹Ľ": 9292,
      "äº§éĩı": 9293,
      "æĢ»éĥ¨ä½įäºİ": 9294,
      "è¥¿éĹ¨": 9295,
      "éĺ¿æĸ¯": 9296,
      "å¼Ģå§ĭäºĨ": 9297,
      "rid": 9298,
      "ĠåĮĹäº¬": 9299,
      "1917": 9300,
      "åħ¬ç¤¾": 9301,
      "ä¸ľæĹ¥æľ¬": 9302,
      "æľŁåĪĬ": 9303,
      "ä¸¤åº§": 9304,
      "æ¤Ĵ": 9305,
      "çļĦåŁİå¸Ĥ": 9306,
      "ä¸Ģèĩ³": 9307,
      "ä¸ºè¯¥": 9308,
      "ç§ĳå¹»": 9309,
      "æĶ¹ä»»": 9310,
      "åįİè¯Ń": 9311,
      "å®ŀè·µ": 9312,
      "æĪĪå°Ķ": 9313,
      "çļĦä»£è¡¨": 9314,
      "å½±ä¸ļ": 9315,
      "æĢ»åħ±": 9316,
      "åī§åĽ¢": 9317,
      "åı¯ä»¥éĢļè¿ĩ": 9318,
      "ise": 9319,
      "æĶ»åĬ¿": 9320,
      "åģľåĬŀ": 9321,
      "æĿ¿åĿĹ": 9322,
      "çļĦå¤§éĥ¨åĪĨ": 9323,
      "Ġæľ¨": 9324,
      "çļĦçĲĥåĳĺ": 9325,
      "çļĦè¡¨çİ°": 9326,
      "éĢļå¸¸æĺ¯": 9327,
      "ĠéĥŃ": 9328,
      "ç½Ĳ": 9329,
      "åĬĽåŃ¦": 9330,
      "Ġto": 9331,
      "æľ¬éĥ¨": 9332,
      "å¤ļå¤«": 9333,
      "ä½¿ä»ĸ": 9334,
      "åİŁçĲĨ": 9335,
      "åĮħæĭ¬äºĨ": 9336,
      "æĻĭåįĩ": 9337,
      "ç½ķè§ģ": 9338,
      "åĪĨç»Ħ": 9339,
      "åįĹåĮº": 9340,
      "ä¸īçº§": 9341,
      "ics": 9342,
      "éĢīä¸¾ä¸Ń": 9343,
      "Ġåı¯": 9344,
      "åĮĹç¾İæ´²": 9345,
      "æīĵéĢł": 9346,
      "ç¬¬ä¸īæ¬¡": 9347,
      "ä½Ĩæĺ¯åľ¨": 9348,
      "æļ´åĬĽ": 9349,
      "ãĥĥãĥĪ": 9350,
      "Ġå¤ı": 9351,
      "æ²§": 9352,
      "ç¦¾": 9353,
      "åħīç¦Ħ": 9354,
      "æį®è¯´": 9355,
      "çļĦæ¦Ĥå¿µ": 9356,
      "åĴª": 9357,
      "èĢĮå¾ĹåĲį": 9358,
      "èĪĨ": 9359,
      "éĴ§": 9360,
      "åµĮ": 9361,
      "éĽįæŃ£": 9362,
      "ä¸»å¯¼": 9363,
      "åıĤéĢī": 9364,
      "Ġ1986": 9365,
      "ĠåıĤçľĭ": 9366,
      "Ġç®ĢåİĨ": 9367,
      "ĠåıĮ": 9368,
      "çĶ¨äºĨ": 9369,
      "å±±æĿĳ": 9370,
      "æľŁçļĦ": 9371,
      "åħĭç½Ĺåľ°äºļ": 9372,
      "æĹ¶æĬ¥": 9373,
      "å¦¥": 9374,
      "æŃ£æĺ¯": 9375,
      "Ġ1901": 9376,
      "å·´æĸ¯": 9377,
      "åįĥçĵ¦": 9378,
      "ĠII": 9379,
      "å°¼åı¤æĭī": 9380,
      "Ġä¸ĩ": 9381,
      "çļĦèº«ä»½": 9382,
      "äºİé¦Ļæ¸¯": 9383,
      "1914": 9384,
      "å¯¡": 9385,
      "åİŁæĿ¥çļĦ": 9386,
      "æľ«ç«¯": 9387,
      "æĹĹä¸ĭçļĦ": 9388,
      "çļĦåħ¨": 9389,
      "éļĻ": 9390,
      "çłĶç©¶åĳĺ": 9391,
      "åĲīäºļ": 9392,
      "æĽ¼èģĶ": 9393,
      "ille": 9394,
      "å¹²çĩ¥": 9395,
      "åľ¨ç¬¬": 9396,
      "åįģåħ«å¹´": 9397,
      "äº§çī©": 9398,
      "å°±è¢«": 9399,
      "ç¦ıåĪ©": 9400,
      "ä¾§å¼ı": 9401,
      "ç«¯çĤ¹": 9402,
      "æ°¨éħ¸": 9403,
      "å½ĹæĺŁ": 9404,
      "è¯ĹæŃĮ": 9405,
      "è¿½åĩ»": 9406,
      "æĹĹå¸ľ": 9407,
      "çļĦå¼Ģ": 9408,
      "åī¥": 9409,
      "åħ¶çĪ¶": 9410,
      "äºĮçŃī": 9411,
      "èĬ¯": 9412,
      "æ°´ä¸Ĭ": 9413,
      "åĽŀçŃĶ": 9414,
      "åį¢çĵ¦": 9415,
      "ç§ŁçķĮ": 9416,
      "æľīäºĨ": 9417,
      "ä¹Łç§°": 9418,
      "any": 9419,
      "å§ĭç»Ī": 9420,
      "åıĹæįŁ": 9421,
      "ä¿¡éķ¿": 9422,
      "å±ĢçļĦ": 9423,
      "åıĸèĩª": 9424,
      "åĵĪéĩĮ": 9425,
      "å®¹éĩı": 9426,
      "éĺ¿å°Ķåįĳ": 9427,
      "æĴĴåĨ·": 9428,
      "æ¶µçĽĸ": 9429,
      "IM": 9430,
      "ï¼īï¼ī": 9431,
      "æĪĺæŃ»": 9432,
      "åĻª": 9433,
      "åĽłæŃ¤åľ¨": 9434,
      "å½¢æĪĲäºĨ": 9435,
      "ç§ĺé²ģ": 9436,
      "çļĨä¸º": 9437,
      "åķ¤éħĴ": 9438,
      "áĥ": 9439,
      "çļĦåĨħå®¹": 9440,
      "ç«ĸ": 9441,
      "ä¸įä½³": 9442,
      "é«ĺéĵģ": 9443,
      "101": 9444,
      "æĺİä»£": 9445,
      "éĻįèĲ½": 9446,
      "èĢ¶è·¯": 9447,
      "çĶµåŃĲæ¸¸æĪı": 9448,
      "åµ©": 9449,
      "gl": 9450,
      "æĹ¶å°ļ": 9451,
      "éĿ¢åĮħ": 9452,
      "ĠTeam": 9453,
      "åĩłåĨħäºļ": 9454,
      "è·¨è¶Ĭ": 9455,
      "ä¸īç§į": 9456,
      "é«ĺå®Ĺ": 9457,
      "å®ŀä½ĵ": 9458,
      "åħµåĬĽ": 9459,
      "åį³ä¸º": 9460,
      "ç¾¤ä½ĵ": 9461,
      "ows": 9462,
      "Ġä½įäºİ": 9463,
      "åĴĮå°ı": 9464,
      "åĮĹç«Ļ": 9465,
      "æ¨¡ä»¿": 9466,
      "åĩłä½ķ": 9467,
      "BM": 9468,
      "CR": 9469,
      "1911": 9470,
      "åĪ©å®ī": 9471,
      "æĶ¾å°Ħ": 9472,
      "å®£åĳĬ": 9473,
      "æī¿è¯º": 9474,
      "äºĮåįģå¹´": 9475,
      "Ġä¸ªäººçĶŁæ´»": 9476,
      "çĶµåĬ¨æľº": 9477,
      "Ġæ³¢": 9478,
      "æľĪå¼Ģå§ĭ": 9479,
      "ä¹ĭè·¯": 9480,
      "çĶµç«Ļ": 9481,
      "åĽ¢ç»ĵ": 9482,
      "åħ¶ä»ĸçļĦ": 9483,
      "çŁŃçīĩ": 9484,
      "çĻĮçĹĩ": 9485,
      "è¿ĽèĢĮ": 9486,
      "æĥ©": 9487,
      "å¼ĢåıĳåĮº": 9488,
      "åªĽ": 9489,
      "éľįå°Ķ": 9490,
      "III": 9491,
      "å¨ģå°Ķå£«": 9492,
      "çīº": 9493,
      "1921": 9494,
      "éĥ¨ä¸ĭ": 9495,
      "æİ¥ç®¡": 9496,
      "çĹħäºº": 9497,
      "ä¹Įæĭī": 9498,
      "æĳĦæĶ¿": 9499,
      "å¤ºåĨł": 9500,
      "èĢ¶è·¯æĴĴåĨ·": 9501,
      "Ġåħ¶ä¸Ń": 9502,
      "å¤§å°Ĩ": 9503,
      "æĮ¤": 9504,
      "ä½Ĩåħ¶": 9505,
      "æ£ł": 9506,
      "éĢīä¸Ń": 9507,
      "çĦļ": 9508,
      "åŃ¦å£«åŃ¦ä½į": 9509,
      "ä¸ĢæĹ¥": 9510,
      "åĩºäºİ": 9511,
      "ãĥ¯": 9512,
      "éħī": 9513,
      "æľĿéĺ³": 9514,
      "æĶ¯æĴĳ": 9515,
      "å·¥ä½ľçļĦ": 9516,
      "åħĦéķ¿": 9517,
      "ISBN": 9518,
      "Ġå¾·åĽ½": 9519,
      "é²¤": 9520,
      "çīłä»¬çļĦ": 9521,
      "å³¡è°·": 9522,
      "å¾·çĶ²": 9523,
      "æĭīå¤ļ": 9524,
      "ç¥ŀçļĦ": 9525,
      "éļıæľº": 9526,
      "éĻĨåľ°": 9527,
      "èľĴ": 9528,
      "å¹¶ä¸Ķåľ¨": 9529,
      "æĪĺå½¹ä¸Ń": 9530,
      "ech": 9531,
      "è½¶": 9532,
      "æµ·åħ³": 9533,
      "å¤©çİĭ": 9534,
      "ä½Ĩæ²¡æľī": 9535,
      "ĠCar": 9536,
      "åĲ«éĩı": 9537,
      "åħ¨åĽ½éĩįçĤ¹æĸĩçī©ä¿ĿæĬ¤åįķä½į": 9538,
      "è¾Ĳé³įé±¼": 9539,
      "CA": 9540,
      "ç±»åĪ«": 9541,
      "èĲ½è´¥": 9542,
      "åĶĲä»£": 9543,
      "èİīäºļ": 9544,
      "æ¿ĢçĥĪ": 9545,
      "åħ¬åĽ½": 9546,
      "åĮĹè·¯": 9547,
      "åĪ¶å¤ĩ": 9548,
      "å°¼æĹ¥": 9549,
      "æľ¯è¯Ń": 9550,
      "ä¸ĵåĪ©": 9551,
      "çĳŀåħĭ": 9552,
      "ç»§æī¿äºº": 9553,
      "PlayStation": 9554,
      "Ro": 9555,
      "ĠåĲĦ": 9556,
      "å¹´åĩºçĶŁ": 9557,
      "æĪİ": 9558,
      "1910": 9559,
      "åĽ½å®¶çº§": 9560,
      "ä¸ĸçķĮåĲĦåľ°": 9561,
      "ä¿®è®¢": 9562,
      "åħ¸åŀĭçļĦ": 9563,
      "æ¡£æ¡Ī": 9564,
      "çļĦå¤ļ": 9565,
      "æĸ¯æĭī": 9566,
      "çī©èµĦ": 9567,
      "æ²³åĨħ": 9568,
      "åı¤å·´": 9569,
      "åº§ä½į": 9570,
      "éĺµäº¡": 9571,
      "ĠåĨłåĨĽ": 9572,
      "å¸Ĥç«ĭ": 9573,
      "ç¤¾éķ¿": 9574,
      "èĴĻå¾·": 9575,
      "æ··ä¹±": 9576,
      "éĢĥäº¡": 9577,
      "æ±Łè¥¿çľģ": 9578,
      "àº": 9579,
      "ä¸Ģåı·": 9580,
[...]
